#include "aww_model_data.h"

const unsigned char g_aww_model_data[] = {
  0x1c, 0x00, 0x00, 0x00, 0x54, 0x46, 0x4c, 0x33, 0x00, 0x00, 0x12, 0x00,
  0x1c, 0x00, 0x04, 0x00, 0x08, 0x00, 0x0c, 0x00, 0x10, 0x00, 0x14, 0x00,
  0x00, 0x00, 0x18, 0x00, 0x12, 0x00, 0x00, 0x00, 0x03, 0x00, 0x00, 0x00,
  0x5c, 0xe8, 0x00, 0x00, 0x90, 0x62, 0x00, 0x00, 0x78, 0x62, 0x00, 0x00,
  0x3c, 0x00, 0x00, 0x00, 0x04, 0x00, 0x00, 0x00, 0x01, 0x00, 0x00, 0x00,
  0x0c, 0x00, 0x00, 0x00, 0x08, 0x00, 0x0c, 0x00, 0x04, 0x00, 0x08, 0x00,
  0x08, 0x00, 0x00, 0x00, 0x08, 0x00, 0x00, 0x00, 0x24, 0x00, 0x00, 0x00,
  0x13, 0x00, 0x00, 0x00, 0x6d, 0x69, 0x6e, 0x5f, 0x72, 0x75, 0x6e, 0x74,
  0x69, 0x6d, 0x65, 0x5f, 0x76, 0x65, 0x72, 0x73, 0x69, 0x6f, 0x6e, 0x00,
  0x25, 0x00, 0x00, 0x00, 0x2c, 0x62, 0x00, 0x00, 0x18, 0x62, 0x00, 0x00,
  0xfc, 0x60, 0x00, 0x00, 0xe8, 0x5f, 0x00, 0x00, 0xd4, 0x5e, 0x00, 0x00,
  0xc0, 0x5d, 0x00, 0x00, 0x9c, 0x5d, 0x00, 0x00, 0x58, 0x5d, 0x00, 0x00,
  0x44, 0x5c, 0x00, 0x00, 0xf0, 0x59, 0x00, 0x00, 0xdc, 0x58, 0x00, 0x00,
  0x88, 0x56, 0x00, 0x00, 0x74, 0x55, 0x00, 0x00, 0x20, 0x53, 0x00, 0x00,
  0x0c, 0x52, 0x00, 0x00, 0xb8, 0x4f, 0x00, 0x00, 0xa4, 0x4e, 0x00, 0x00,
  0x90, 0x4b, 0x00, 0x00, 0x7c, 0x41, 0x00, 0x00, 0x68, 0x31, 0x00, 0x00,
  0x54, 0x21, 0x00, 0x00, 0x40, 0x11, 0x00, 0x00, 0x2c, 0x01, 0x00, 0x00,
  0x20, 0x01, 0x00, 0x00, 0x0c, 0x01, 0x00, 0x00, 0xf8, 0x00, 0x00, 0x00,
  0xe4, 0x00, 0x00, 0x00, 0xd0, 0x00, 0x00, 0x00, 0xbc, 0x00, 0x00, 0x00,
  0xa8, 0x00, 0x00, 0x00, 0x94, 0x00, 0x00, 0x00, 0x80, 0x00, 0x00, 0x00,
  0x6c, 0x00, 0x00, 0x00, 0x58, 0x00, 0x00, 0x00, 0x44, 0x00, 0x00, 0x00,
  0x30, 0x00, 0x00, 0x00, 0x04, 0x00, 0x00, 0x00, 0xbe, 0x9d, 0xff, 0xff,
  0x04, 0x00, 0x00, 0x00, 0x10, 0x00, 0x00, 0x00, 0x31, 0x2e, 0x35, 0x2e,
  0x30, 0x00, 0x00, 0x00, 0x00, 0x00, 0x00, 0x00, 0x00, 0x00, 0x00, 0x00,
  0x00, 0x00, 0x00, 0x00, 0x00, 0x00, 0x00, 0x00, 0x00, 0x00, 0x00, 0x00,
  0xd0, 0x2e, 0xff, 0xff, 0x00, 0x00, 0x00, 0x00, 0x00, 0x00, 0x00, 0x00,
  0x00, 0x00, 0x00, 0x00, 0xe0, 0x2e, 0xff, 0xff, 0x00, 0x00, 0x00, 0x00,
  0x00, 0x00, 0x00, 0x00, 0x00, 0x00, 0x00, 0x00, 0xf0, 0x2e, 0xff, 0xff,
  0x00, 0x00, 0x00, 0x00, 0x00, 0x00, 0x00, 0x00, 0x00, 0x00, 0x00, 0x00,
  0x00, 0x2f, 0xff, 0xff, 0x00, 0x00, 0x00, 0x00, 0x00, 0x00, 0x00, 0x00,
  0x00, 0x00, 0x00, 0x00, 0x10, 0x2f, 0xff, 0xff, 0x00, 0x00, 0x00, 0x00,
  0x00, 0x00, 0x00, 0x00, 0x00, 0x00, 0x00, 0x00, 0x20, 0x2f, 0xff, 0xff,
  0x00, 0x00, 0x00, 0x00, 0x00, 0x00, 0x00, 0x00, 0x00, 0x00, 0x00, 0x00,
  0x30, 0x2f, 0xff, 0xff, 0x00, 0x00, 0x00, 0x00, 0x00, 0x00, 0x00, 0x00,
  0x00, 0x00, 0x00, 0x00, 0x40, 0x2f, 0xff, 0xff, 0x00, 0x00, 0x00, 0x00,
  0x00, 0x00, 0x00, 0x00, 0x00, 0x00, 0x00, 0x00, 0x50, 0x2f, 0xff, 0xff,
  0x00, 0x00, 0x00, 0x00, 0x00, 0x00, 0x00, 0x00, 0x00, 0x00, 0x00, 0x00,
  0x60, 0x2f, 0xff, 0xff, 0x00, 0x00, 0x00, 0x00, 0x00, 0x00, 0x00, 0x00,
  0x00, 0x00, 0x00, 0x00, 0x70, 0x2f, 0xff, 0xff, 0x00, 0x00, 0x00, 0x00,
  0x00, 0x00, 0x00, 0x00, 0x00, 0x00, 0x00, 0x00, 0x80, 0x2f, 0xff, 0xff,
  0x00, 0x00, 0x00, 0x00, 0x00, 0x00, 0x00, 0x00, 0x00, 0x00, 0x00, 0x00,
  0x90, 0x2f, 0xff, 0xff, 0x00, 0x00, 0x00, 0x00, 0xae, 0x9e, 0xff, 0xff,
  0x04, 0x00, 0x00, 0x00, 0x00, 0x10, 0x00, 0x00, 0x26, 0x48, 0x15, 0xf9,
  0x94, 0x0a, 0xd3, 0x65, 0xd0, 0x16, 0xa6, 0xd4, 0xc3, 0x08, 0xa2, 0x13,
  0x27, 0xf3, 0xf8, 0x36, 0xe9, 0x0d, 0xd7, 0xa8, 0xb8, 0xce, 0x18, 0x37,
  0xf2, 0xc1, 0x38, 0x5b, 0x06, 0x0f, 0x81, 0xf9, 0xa7, 0xfa, 0x27, 0x16,
  0x41, 0x54, 0xd8, 0xc3, 0x04, 0xfe, 0xde, 0x6f, 0x41, 0x26, 0x85, 0xbe,
  0xd5, 0x1e, 0x07, 0x21, 0xe9, 0x0b, 0xe1, 0x15, 0x15, 0xd5, 0x50, 0x45,
  0x1b, 0xc5, 0xee, 0x24, 0x18, 0x05, 0x11, 0xcb, 0x7f, 0xa0, 0xc1, 0x38,
  0xdd, 0xc2, 0x1c, 0x15, 0xc0, 0x10, 0xfb, 0x08, 0x11, 0xf0, 0x2d, 0xce,
  0xc8, 0xe8, 0xa3, 0xd4, 0x07, 0x2d, 0x08, 0x35, 0x21, 0xdc, 0x1a, 0x2e,
  0xf2, 0x1c, 0x0a, 0xef, 0x23, 0xf4, 0xe8, 0xd4, 0x14, 0xbd, 0xf4, 0x0c,
  0x41, 0xf1, 0xe4, 0xa9, 0x51, 0x5b, 0x03, 0x15, 0x33, 0xe6, 0x22, 0xe2,
  0x20, 0x09, 0x03, 0x03, 0x22, 0xd1, 0x1b, 0x6d, 0x1c, 0xfb, 0x07, 0xef,
  0x06, 0x17, 0x53, 0xd0, 0xf4, 0xe6, 0x28, 0xe1, 0x0a, 0xfd, 0x19, 0xf5,
  0x6e, 0xef, 0x0a, 0xd4, 0xf2, 0x0a, 0x10, 0xe9, 0x11, 0x2e, 0xd6, 0x09,
  0xad, 0xc7, 0x7f, 0x0c, 0x56, 0xea, 0xec, 0xd9, 0xfb, 0x19, 0xeb, 0x15,
  0xb9, 0xef, 0xe8, 0x33, 0x05, 0xf8, 0xdc, 0xd9, 0x1c, 0x32, 0x17, 0xe2,
  0xfd, 0xc1, 0x32, 0x06, 0x06, 0xf4, 0xce, 0xe8, 0x18, 0x1d, 0x44, 0x0c,
  0x2a, 0xed, 0x09, 0xb5, 0x28, 0x5c, 0x02, 0x87, 0x20, 0x06, 0x6e, 0xbb,
  0xf6, 0x04, 0x31, 0xf4, 0xe3, 0x53, 0x1b, 0xfe, 0x50, 0x33, 0x7f, 0xf4,
  0x36, 0x0a, 0xd5, 0xfc, 0xf3, 0xda, 0xf2, 0x07, 0x3d, 0x4a, 0x10, 0xf7,
  0x02, 0x53, 0xbf, 0x1b, 0xdf, 0xc5, 0xe4, 0xea, 0x2b, 0x17, 0x29, 0x18,
  0x73, 0xfe, 0x19, 0x50, 0xdf, 0x17, 0xf0, 0x2d, 0xd4, 0xd6, 0x36, 0xf9,
  0x13, 0xaa, 0x0c, 0xfa, 0x4f, 0xfa, 0x1f, 0x1d, 0xd4, 0xad, 0xa2, 0xe2,
  0x24, 0x33, 0x3a, 0xb1, 0xdd, 0x18, 0x03, 0x12, 0xdc, 0x12, 0x1f, 0x12,
  0xef, 0x05, 0xf0, 0xe8, 0x7f, 0xf1, 0x2a, 0xe9, 0x30, 0xdc, 0x0a, 0xc9,
  0x59, 0xf2, 0xdd, 0x22, 0x49, 0xe2, 0xf6, 0x49, 0x11, 0xeb, 0x0f, 0x1d,
  0x1b, 0x0d, 0xd9, 0xd7, 0x3d, 0x16, 0xef, 0x34, 0xb7, 0xad, 0x68, 0x25,
  0x2d, 0xc4, 0x13, 0xee, 0xdf, 0x5d, 0x31, 0xd3, 0xa0, 0xfd, 0xf0, 0x57,
  0xe8, 0x7f, 0xbc, 0xea, 0x18, 0x2b, 0x1e, 0x4c, 0x0a, 0x0e, 0xb9, 0x17,
  0xcd, 0x30, 0xcb, 0x3b, 0xdb, 0xe4, 0xee, 0xf7, 0xd1, 0x0c, 0x1d, 0x08,
  0x60, 0xfc, 0xde, 0xd4, 0x3b, 0xab, 0x2a, 0x52, 0x2b, 0x0b, 0x17, 0xfd,
  0x33, 0xc2, 0xd7, 0xc5, 0xa5, 0x6b, 0xf3, 0xc9, 0xca, 0x51, 0xd7, 0x5f,
  0xe8, 0x61, 0xfd, 0x11, 0x1f, 0xf2, 0xe9, 0x1b, 0xe7, 0x3a, 0x23, 0xe3,
  0xb8, 0xfe, 0xf9, 0xd3, 0xff, 0x2e, 0xee, 0xf8, 0xdf, 0x07, 0x15, 0x44,
  0x0b, 0x00, 0x0c, 0x00, 0xed, 0x2d, 0x38, 0x3e, 0x14, 0x04, 0xd9, 0xe8,
  0xf1, 0x11, 0xda, 0x13, 0x3b, 0xe1, 0xd7, 0x09, 0x14, 0x20, 0x2c, 0xe6,
  0xd8, 0x1b, 0xf4, 0xca, 0x18, 0xbb, 0x05, 0xd1, 0xfd, 0x05, 0x29, 0x0b,
  0x7f, 0x2d, 0x13, 0x4d, 0xf4, 0x37, 0xdc, 0x0f, 0xfa, 0xd3, 0x15, 0xca,
  0x1e, 0xef, 0xd6, 0xd8, 0x34, 0xfe, 0x0c, 0x68, 0xb9, 0x0f, 0x66, 0xaf,
  0xf3, 0x5c, 0xc6, 0x07, 0xe9, 0xf6, 0x2d, 0x20, 0x42, 0xd3, 0xbf, 0xda,
  0xb6, 0xbc, 0x76, 0x2d, 0xeb, 0x3d, 0x21, 0x65, 0xb3, 0xe4, 0x17, 0x0f,
  0xb1, 0xea, 0x40, 0x33, 0x2c, 0x19, 0xd9, 0xf2, 0xfb, 0x7f, 0xfa, 0x1d,
  0x54, 0x19, 0x9b, 0x14, 0xa9, 0x12, 0x1b, 0x85, 0x07, 0x4f, 0xec, 0x13,
  0xe5, 0xab, 0xd5, 0xe0, 0x18, 0xfd, 0xe7, 0xdc, 0x07, 0x06, 0x11, 0x7f,
  0xb1, 0x14, 0x21, 0xc8, 0xec, 0x0b, 0xb5, 0xe8, 0x2f, 0xd3, 0x0a, 0x27,
  0x29, 0xff, 0xd0, 0xed, 0xb4, 0xf8, 0x10, 0xf3, 0x0a, 0xff, 0xef, 0xf0,
  0xcc, 0x12, 0x2d, 0xd8, 0xe5, 0xdc, 0x03, 0x0b, 0x2d, 0x47, 0xf3, 0x1d,
  0xfa, 0x06, 0xff, 0x2d, 0x16, 0xfd, 0xc0, 0xf4, 0xf0, 0x24, 0xf5, 0xd9,
  0xf4, 0x08, 0x10, 0xf9, 0xd7, 0x06, 0xff, 0x00, 0xf6, 0xbc, 0x09, 0x7f,
  0x23, 0x0f, 0x00, 0xa7, 0x20, 0xcd, 0x4c, 0x4b, 0xb7, 0xa2, 0xe3, 0x5c,
  0xfc, 0xf8, 0x48, 0xf1, 0x52, 0xeb, 0x01, 0x18, 0xe6, 0xec, 0xe7, 0x2e,
  0xec, 0x72, 0xd1, 0x5a, 0xea, 0xdf, 0xff, 0x52, 0xc4, 0x0c, 0x50, 0xd6,
  0xf9, 0xce, 0xe5, 0xea, 0x01, 0x04, 0xd9, 0x32, 0xfc, 0xca, 0xdd, 0x1c,
  0x22, 0x47, 0x32, 0xc4, 0x4c, 0xee, 0xf3, 0xd0, 0xe5, 0x2a, 0xe9, 0xc8,
  0xef, 0x59, 0xd9, 0xc2, 0xbe, 0x06, 0xd5, 0x02, 0xa6, 0x14, 0xac, 0x08,
  0xf7, 0x17, 0x81, 0xd8, 0xc0, 0xed, 0x0f, 0x1b, 0xa6, 0x56, 0x21, 0xff,
  0xfb, 0x0a, 0x0b, 0x1f, 0x31, 0xfa, 0xe2, 0xe0, 0x05, 0x0e, 0x0f, 0x06,
  0x02, 0x46, 0xf5, 0xf7, 0xce, 0x25, 0x12, 0x01, 0xbe, 0xa8, 0x42, 0xbe,
  0xfd, 0x22, 0xa3, 0x2f, 0x41, 0x46, 0x06, 0x11, 0xc8, 0xe5, 0x0e, 0x02,
  0x54, 0xfa, 0x5b, 0xe8, 0xf6, 0xbd, 0xf4, 0x21, 0x0a, 0x04, 0xf4, 0xe9,
  0xf0, 0xc1, 0x5d, 0xe4, 0xcf, 0xce, 0xfc, 0x10, 0xf8, 0x16, 0x24, 0x08,
  0x30, 0xe9, 0x01, 0x2c, 0xcc, 0x27, 0x7f, 0xc0, 0x1c, 0x28, 0xec, 0xc8,
  0x18, 0xeb, 0x29, 0x0d, 0x25, 0xef, 0x0f, 0xb2, 0xcf, 0xb0, 0xc1, 0x4d,
  0x27, 0xfa, 0xe4, 0xfb, 0x25, 0x0d, 0xff, 0x63, 0x41, 0xf4, 0x18, 0xfc,
  0x2f, 0xaf, 0x17, 0x0c, 0xe2, 0xbf, 0xe0, 0x12, 0xec, 0x18, 0x1a, 0x15,
  0xfe, 0xfe, 0xe4, 0xf4, 0x7f, 0xbb, 0xf7, 0xfb, 0xb3, 0xd4, 0x35, 0x4e,
  0xdc, 0x0a, 0x12, 0xe7, 0xb1, 0x4c, 0xe7, 0x55, 0xf5, 0xf4, 0x4e, 0xde,
  0xe0, 0x16, 0x44, 0xf0, 0x52, 0xb9, 0xc9, 0xf2, 0xee, 0xe7, 0x3b, 0xfc,
  0x6e, 0x43, 0xb9, 0xd0, 0x7a, 0xfe, 0xa4, 0xc6, 0x63, 0xff, 0x0a, 0xf6,
  0x3e, 0x52, 0x01, 0x6c, 0x40, 0x4e, 0x9f, 0x1a, 0xd7, 0xff, 0xca, 0xf6,
  0x2a, 0xf7, 0xd0, 0x08, 0xf9, 0x00, 0xf3, 0x7f, 0xe6, 0x04, 0x45, 0x38,
  0xac, 0xc7, 0xdc, 0x26, 0x08, 0x08, 0xd0, 0x1f, 0x00, 0xd4, 0x14, 0xdf,
  0xaa, 0xfa, 0x16, 0xa1, 0xdc, 0x14, 0x0c, 0xa2, 0x02, 0xf3, 0xe9, 0x07,
  0xf7, 0xba, 0x05, 0xf2, 0x0a, 0xd2, 0xe5, 0x50, 0x19, 0x0b, 0xad, 0xdc,
  0xb7, 0x38, 0xbb, 0xea, 0x48, 0x5a, 0xec, 0xc8, 0x44, 0xb8, 0xef, 0xe8,
  0xd0, 0x41, 0xd1, 0xe5, 0x1f, 0x2d, 0x01, 0xcc, 0x19, 0x13, 0x16, 0x09,
  0xcb, 0x0f, 0xf3, 0x3a, 0xf1, 0x12, 0xf2, 0xed, 0x14, 0xdd, 0xed, 0x2f,
  0x10, 0x20, 0xe3, 0xa0, 0xe4, 0xd2, 0x09, 0x37, 0x06, 0xd6, 0x0f, 0x95,
  0x66, 0x30, 0x0c, 0xfc, 0xc0, 0x4d, 0xe9, 0x35, 0x00, 0xe6, 0x4a, 0xff,
  0xc1, 0x11, 0x03, 0x2a, 0x05, 0x5d, 0xfa, 0xac, 0xbb, 0xe5, 0xfc, 0xfe,
  0xde, 0xd3, 0x1e, 0x1f, 0x7f, 0xc6, 0x53, 0x47, 0x1c, 0x47, 0x91, 0xe8,
  0xe2, 0x02, 0x2b, 0xb0, 0xbe, 0x3c, 0xeb, 0xbc, 0x25, 0xf9, 0x81, 0x98,
  0xd4, 0xe4, 0x38, 0x2e, 0xec, 0x01, 0xed, 0x06, 0xe2, 0x05, 0x5b, 0xeb,
  0xe0, 0xf5, 0xd5, 0x1f, 0xb9, 0x04, 0x05, 0x25, 0xe6, 0x72, 0xdf, 0xfa,
  0xc6, 0x30, 0x33, 0xf8, 0xd4, 0xf4, 0x68, 0xcb, 0xe4, 0x04, 0xeb, 0x2d,
  0x07, 0x06, 0x0a, 0x19, 0xbd, 0x46, 0x2c, 0x11, 0x61, 0x34, 0x34, 0x06,
  0x0f, 0xf3, 0x9d, 0xdd, 0xf8, 0x20, 0x0b, 0x02, 0x9e, 0xb8, 0xd6, 0xfb,
  0x0a, 0x26, 0x9b, 0x81, 0x14, 0xd5, 0x15, 0x5c, 0xeb, 0xc1, 0xe6, 0xc0,
  0xcd, 0xe4, 0x06, 0x45, 0x17, 0xfb, 0x29, 0xef, 0x03, 0x2a, 0x31, 0xfb,
  0x8a, 0x15, 0x00, 0x3d, 0x1a, 0xe1, 0x34, 0x08, 0xe3, 0x2f, 0x63, 0x68,
  0x3d, 0x51, 0xd6, 0xdb, 0xcc, 0x1d, 0x0e, 0x3c, 0xd6, 0x1a, 0x4e, 0x16,
  0x49, 0xd7, 0x3f, 0x08, 0xf5, 0x1a, 0x44, 0x4d, 0xd8, 0xfd, 0xe9, 0x03,
  0xf1, 0x3c, 0xcd, 0x04, 0xf4, 0xd9, 0x63, 0x7f, 0x12, 0x18, 0x07, 0xeb,
  0x03, 0xfc, 0xe2, 0x37, 0x3e, 0x0b, 0x05, 0x03, 0xd7, 0x20, 0xc4, 0xea,
  0x19, 0xec, 0x32, 0xe2, 0x2d, 0x14, 0x0b, 0xf4, 0xac, 0xfd, 0xe3, 0xc1,
  0x15, 0xd7, 0x00, 0xea, 0x43, 0xea, 0x52, 0x0d, 0x33, 0x01, 0x00, 0x53,
  0xea, 0x19, 0xee, 0x08, 0xcb, 0x8b, 0xd9, 0xc5, 0xea, 0xd5, 0xec, 0xed,
  0xe8, 0x08, 0x47, 0xd1, 0x94, 0x05, 0x20, 0xaf, 0x07, 0xfc, 0xc0, 0xa7,
  0xf5, 0xe7, 0x2e, 0x0d, 0x22, 0xfd, 0x05, 0x10, 0xdc, 0xf4, 0xc9, 0x1b,
  0xfb, 0x1f, 0xfc, 0x74, 0x9f, 0xf3, 0x6a, 0x44, 0xdb, 0x21, 0x24, 0xe5,
  0xbc, 0x27, 0x20, 0xf0, 0xbc, 0x2c, 0x7f, 0x22, 0xc8, 0xee, 0xe3, 0x23,
  0xe2, 0x36, 0x07, 0xcb, 0xdb, 0x57, 0x2a, 0xfa, 0x34, 0x27, 0xc9, 0xd4,
  0xe1, 0xd7, 0x93, 0x3f, 0xe9, 0x0e, 0xfe, 0xc9, 0x4b, 0xdd, 0xfb, 0x68,
  0xf7, 0xdd, 0xe7, 0x25, 0xe1, 0x04, 0xf6, 0xff, 0xe9, 0xcf, 0xfd, 0x22,
  0xf8, 0xec, 0xb6, 0x46, 0xef, 0x16, 0x1a, 0xf8, 0x7f, 0x0e, 0xc0, 0x05,
  0xbe, 0x7d, 0x39, 0xd8, 0xb1, 0xe1, 0x1a, 0xa2, 0x3d, 0xda, 0x45, 0xbb,
  0xfe, 0x23, 0x18, 0x0a, 0xde, 0x19, 0x20, 0x15, 0x18, 0xfa, 0x3e, 0xec,
  0x55, 0x34, 0x03, 0xc2, 0xf9, 0xda, 0xe0, 0xbb, 0xe6, 0xff, 0x26, 0xaf,
  0xcd, 0x0a, 0xf7, 0x41, 0xf2, 0xda, 0x7f, 0x0e, 0xe6, 0x2c, 0x15, 0xe8,
  0xe8, 0xce, 0x1e, 0x28, 0x08, 0x25, 0xe8, 0xf0, 0x0e, 0x0e, 0xf7, 0x11,
  0x14, 0xe1, 0x4d, 0x15, 0xf2, 0x20, 0x1d, 0xc3, 0x83, 0x83, 0x06, 0xf6,
  0xe3, 0x12, 0x49, 0xb5, 0xa6, 0xf7, 0x61, 0x6a, 0x05, 0x0d, 0x12, 0x29,
  0xf3, 0x21, 0x0b, 0x0f, 0x06, 0x43, 0xcc, 0xcb, 0x24, 0xce, 0x15, 0xf1,
  0x35, 0xef, 0xe2, 0x10, 0xdc, 0x27, 0x18, 0xe0, 0xf9, 0x35, 0x4a, 0x42,
  0x23, 0xfc, 0xe7, 0x17, 0x12, 0xf3, 0xff, 0x81, 0x1f, 0x0f, 0x4d, 0xf3,
  0x1a, 0x00, 0x1f, 0x96, 0x1d, 0x0a, 0xf7, 0xc7, 0x4a, 0xf8, 0xbb, 0x35,
  0xe7, 0x01, 0xef, 0xe9, 0xde, 0xfc, 0xe7, 0xf9, 0xfe, 0x2a, 0x09, 0xd6,
  0xd9, 0x06, 0xd2, 0xf3, 0x05, 0xfb, 0xf8, 0x46, 0x3c, 0xe0, 0x05, 0x3f,
  0x2e, 0x0d, 0xfa, 0xd5, 0xf5, 0x08, 0xfe, 0x15, 0xcc, 0xe5, 0xd7, 0x54,
  0x71, 0x0b, 0xb4, 0xc8, 0x2e, 0xed, 0xd2, 0x1f, 0xe6, 0x43, 0x02, 0xbc,
  0x0d, 0xef, 0x0e, 0x44, 0x56, 0x19, 0x28, 0xb6, 0x6c, 0x22, 0x05, 0xd9,
  0xe6, 0xbc, 0xfb, 0x7f, 0x1d, 0x35, 0x12, 0x50, 0xe0, 0xed, 0xe9, 0x24,
  0x02, 0x3e, 0xcc, 0xc5, 0x0b, 0x01, 0x09, 0x3f, 0xc9, 0xd8, 0x2c, 0xfd,
  0x70, 0xc6, 0x44, 0xb7, 0x17, 0xb9, 0xd0, 0x1a, 0x38, 0xfd, 0xeb, 0x13,
  0xee, 0xf8, 0xab, 0xd7, 0xf7, 0x50, 0x68, 0x15, 0xcd, 0x20, 0xef, 0x09,
  0x0d, 0x29, 0xe6, 0x0a, 0xf4, 0x05, 0x2e, 0x06, 0x52, 0xe7, 0x42, 0x81,
  0x39, 0xea, 0xe8, 0xbd, 0x65, 0x41, 0x03, 0x39, 0x07, 0xf2, 0x05, 0x28,
  0x30, 0x00, 0xf6, 0x1d, 0xf5, 0x1a, 0xe0, 0xac, 0x0e, 0xd1, 0xf1, 0x25,
  0xc2, 0xcf, 0x5e, 0x2e, 0x3b, 0xc6, 0x1b, 0x38, 0x2f, 0xbc, 0x0b, 0xde,
  0x59, 0xff, 0x04, 0x16, 0xd1, 0x0b, 0xd6, 0xc8, 0x0b, 0x25, 0x48, 0x1e,
  0x1b, 0x04, 0xfa, 0x25, 0x13, 0xf0, 0x06, 0xa5, 0xd1, 0x10, 0x5b, 0x20,
  0x66, 0xf4, 0x68, 0x81, 0x28, 0x12, 0x04, 0xd1, 0x12, 0x28, 0xf3, 0x29,
  0x7c, 0x1a, 0x06, 0x2f, 0x21, 0x17, 0xe1, 0x2d, 0xe4, 0x4b, 0xd3, 0x8a,
  0xb5, 0x21, 0xeb, 0xe6, 0xd7, 0xc3, 0x42, 0x35, 0x38, 0xc1, 0x47, 0x2b,
  0x16, 0xfd, 0xea, 0xe4, 0xe5, 0x08, 0x30, 0x1f, 0xbf, 0xce, 0xbf, 0x14,
  0x12, 0x28, 0x15, 0xc9, 0x13, 0xe7, 0xfa, 0x38, 0xd9, 0xd5, 0xb4, 0x29,
  0xe8, 0xe9, 0xa7, 0x09, 0x2b, 0xae, 0x43, 0x06, 0x7f, 0x17, 0x17, 0xef,
  0x97, 0x4a, 0x54, 0x32, 0x4a, 0xe7, 0x2d, 0x16, 0x08, 0x08, 0xf8, 0x31,
  0x3f, 0x48, 0x1e, 0x8a, 0xc0, 0xf6, 0x01, 0x40, 0xd4, 0x28, 0x37, 0x14,
  0xfa, 0x10, 0x16, 0x2a, 0x20, 0xcd, 0x0e, 0xeb, 0x21, 0x03, 0x25, 0xcc,
  0x7f, 0x85, 0xcd, 0x42, 0xa6, 0xb5, 0x29, 0xe6, 0xb6, 0xfe, 0xf6, 0x09,
  0x00, 0xcf, 0xa4, 0x3c, 0xe4, 0x04, 0x67, 0xe3, 0x13, 0x3f, 0x7c, 0xb5,
  0x5d, 0xc2, 0x2f, 0x15, 0xe4, 0xe5, 0x3e, 0x0f, 0x35, 0x05, 0xd8, 0xe0,
  0x7c, 0x06, 0xa4, 0xf7, 0x77, 0x16, 0x09, 0xb7, 0x21, 0x0f, 0xe9, 0x33,
  0x4f, 0x41, 0x30, 0x15, 0xf5, 0x66, 0x04, 0xd4, 0xff, 0x03, 0x06, 0x2c,
  0x25, 0xff, 0x0f, 0x38, 0x99, 0x15, 0x37, 0xfe, 0xb0, 0xb5, 0xc2, 0x25,
  0x13, 0xd2, 0x03, 0x04, 0x11, 0xd9, 0xb7, 0xda, 0xd0, 0xd0, 0x12, 0xcc,
  0xc0, 0x31, 0x2e, 0xf0, 0xaa, 0xfd, 0xe1, 0x4c, 0xbf, 0xcb, 0xfb, 0xf9,
  0xf8, 0xfa, 0xe9, 0xda, 0xfa, 0x2f, 0x2a, 0x11, 0x06, 0xf5, 0xce, 0xc7,
  0xe4, 0x57, 0xfc, 0x81, 0x11, 0x62, 0xf8, 0xfb, 0xfd, 0x74, 0xf2, 0xde,
  0x42, 0xd1, 0xd5, 0xc7, 0x1c, 0xfd, 0xf9, 0x1e, 0xf2, 0xd6, 0xd9, 0xc7,
  0x6f, 0x39, 0xe4, 0xd9, 0xe5, 0x0e, 0xf7, 0x00, 0xe7, 0xd9, 0x20, 0xfa,
  0xd3, 0xf4, 0x7f, 0x3f, 0x25, 0xd8, 0x23, 0x92, 0x43, 0xe1, 0xf1, 0xe2,
  0x09, 0x03, 0xca, 0x30, 0x0f, 0x22, 0xe8, 0x14, 0xc7, 0xea, 0xf6, 0xef,
  0x1b, 0x22, 0xfc, 0x1c, 0xee, 0xfa, 0xf5, 0x23, 0xd0, 0xd6, 0xde, 0x2c,
  0x3a, 0xe4, 0xfa, 0x12, 0xf1, 0xc2, 0xe6, 0x09, 0xf0, 0xfd, 0xe4, 0xf9,
  0x45, 0xaa, 0xdd, 0x01, 0xef, 0xff, 0x21, 0x37, 0xde, 0x00, 0xea, 0x18,
  0x23, 0x0f, 0x56, 0xac, 0xdd, 0xce, 0x81, 0xeb, 0xef, 0x1c, 0xd4, 0x6f,
  0x7a, 0x13, 0x11, 0xf3, 0xc4, 0x5b, 0xeb, 0xe7, 0xe5, 0xfd, 0xe5, 0x0f,
  0x1e, 0xc7, 0x0c, 0x08, 0x45, 0xf6, 0xc7, 0xc1, 0xfe, 0x26, 0x1b, 0x1f,
  0xf1, 0x8a, 0x32, 0xe8, 0x47, 0xa8, 0x30, 0x37, 0xf6, 0x0e, 0xfc, 0xf9,
  0xe9, 0xf7, 0xf3, 0x53, 0xe8, 0x5c, 0xd4, 0x18, 0xff, 0x0b, 0x7f, 0x6f,
  0x1a, 0x31, 0xee, 0xf8, 0xcb, 0xe2, 0x0d, 0x17, 0x3b, 0xed, 0xf2, 0xb9,
  0xd4, 0x09, 0x10, 0xd9, 0x0b, 0xe4, 0xe1, 0xf8, 0xf0, 0xf3, 0x05, 0x0d,
  0xb6, 0xd5, 0xf4, 0xc3, 0x17, 0x12, 0x19, 0xcd, 0x09, 0x19, 0x4b, 0x3c,
  0xc8, 0x06, 0xf0, 0x44, 0xe8, 0x4c, 0xa3, 0x36, 0x06, 0xb6, 0xb8, 0xc6,
  0x0c, 0xf5, 0xfb, 0x10, 0x0b, 0xfb, 0xe9, 0x6e, 0xf3, 0xf8, 0xc1, 0x81,
  0xd8, 0x0e, 0xd8, 0xea, 0xe9, 0x02, 0x0c, 0x0e, 0xcb, 0x77, 0x19, 0x12,
  0xe1, 0x07, 0x7d, 0x1f, 0x2f, 0xef, 0x0a, 0xf6, 0xfa, 0xf0, 0x8c, 0xbc,
  0x5b, 0xc1, 0xd7, 0x09, 0x43, 0x4b, 0xb2, 0x0e, 0x23, 0xa7, 0xfe, 0xbe,
  0xd6, 0x1c, 0xdc, 0x0c, 0x46, 0x23, 0xe6, 0x17, 0xf3, 0xe2, 0x09, 0x1b,
  0x02, 0x10, 0x1d, 0x11, 0xf4, 0x1b, 0xee, 0x2b, 0xfb, 0xf9, 0x33, 0x2b,
  0x81, 0x1e, 0x70, 0xca, 0xf3, 0x04, 0xfd, 0xcf, 0x21, 0xf8, 0xef, 0x1b,
  0x41, 0xe8, 0xc8, 0x62, 0xc8, 0x02, 0x04, 0xf1, 0xea, 0x05, 0xcd, 0xf8,
  0xe7, 0x00, 0xfe, 0xf6, 0xe5, 0xcc, 0x2c, 0xf9, 0x05, 0x34, 0xf5, 0x27,
  0x17, 0xfd, 0x21, 0xda, 0xd8, 0x0e, 0xfe, 0x26, 0x21, 0x19, 0xf8, 0xda,
  0xff, 0x1a, 0x0d, 0xe1, 0xbc, 0xee, 0xb9, 0xca, 0xf4, 0xc3, 0x18, 0x5b,
  0xc3, 0xfc, 0xfd, 0xca, 0x24, 0xc0, 0xcc, 0xf0, 0x05, 0x9e, 0xf3, 0x08,
  0x9b, 0x17, 0x23, 0xef, 0x1f, 0xe6, 0x0c, 0xfa, 0xa6, 0x0f, 0x99, 0x2d,
  0x10, 0x03, 0xe1, 0x7f, 0xf6, 0xe7, 0x38, 0x0f, 0x08, 0x3e, 0xed, 0xd0,
  0x08, 0x10, 0xf2, 0xc4, 0xe5, 0xd7, 0x52, 0xd5, 0x2f, 0xbf, 0xdc, 0xe4,
  0xeb, 0x4a, 0x2f, 0xfc, 0xfa, 0xe8, 0x22, 0xdf, 0x5b, 0xd0, 0xbc, 0xa6,
  0x12, 0xf3, 0x4c, 0x2f, 0xee, 0x06, 0x45, 0xeb, 0xdb, 0x24, 0x30, 0x0a,
  0x13, 0x32, 0x50, 0xdb, 0x09, 0x03, 0xea, 0xfb, 0x43, 0xfe, 0x90, 0x15,
  0x27, 0xdc, 0x89, 0xff, 0x11, 0x01, 0x0d, 0x1d, 0x17, 0xee, 0x4f, 0x04,
  0xe8, 0xd2, 0x7f, 0x08, 0x3c, 0x20, 0x10, 0x28, 0x24, 0x38, 0xd2, 0x6a,
  0x43, 0xfa, 0x04, 0xd0, 0x00, 0x22, 0xf4, 0x1b, 0x12, 0x2c, 0x35, 0xfe,
  0xa3, 0x00, 0xe6, 0x06, 0x12, 0x29, 0xff, 0xdd, 0xd5, 0xf0, 0xc5, 0x11,
  0xb0, 0x5d, 0xce, 0xde, 0x1a, 0xe3, 0x1b, 0x59, 0xe0, 0x00, 0x1e, 0xe1,
  0xed, 0x60, 0x5e, 0xd3, 0x2e, 0xfc, 0x53, 0xf5, 0xbc, 0x1d, 0x9b, 0x4e,
  0xc1, 0x0c, 0xb5, 0xe4, 0x14, 0x09, 0xfd, 0xe1, 0x8e, 0x28, 0xe2, 0x9f,
  0xdf, 0xbd, 0x52, 0x81, 0xf7, 0x03, 0x0c, 0x77, 0xf9, 0x2f, 0x0d, 0x3d,
  0xd9, 0x29, 0xe5, 0x48, 0x54, 0xe1, 0x06, 0xee, 0xf2, 0x51, 0xbc, 0xb4,
  0xf1, 0x0f, 0x1b, 0xdd, 0x06, 0x40, 0x1a, 0x21, 0x0f, 0x0c, 0x16, 0xb7,
  0xe0, 0x0a, 0xf2, 0x47, 0xf9, 0xdc, 0xa8, 0x58, 0x12, 0xea, 0xd8, 0x36,
  0x0e, 0xd4, 0x00, 0xc0, 0x5b, 0x1a, 0xec, 0xe8, 0xa5, 0x2b, 0x7f, 0x2a,
  0x14, 0x09, 0x37, 0x20, 0x20, 0x22, 0xc2, 0x15, 0x30, 0x78, 0x07, 0x13,
  0xc6, 0xf0, 0x05, 0x43, 0xca, 0x5c, 0x14, 0x28, 0xf7, 0xec, 0x4f, 0x23,
  0x38, 0xc4, 0x1b, 0x1b, 0x3e, 0xf6, 0x09, 0xe6, 0xd7, 0x0f, 0x76, 0xcb,
  0xfe, 0xff, 0x7c, 0xf1, 0x28, 0x18, 0x1b, 0x12, 0x21, 0xda, 0xf5, 0x81,
  0x17, 0xfe, 0x77, 0xea, 0x2e, 0x1a, 0xfb, 0xd2, 0xd5, 0x00, 0xd5, 0xf9,
  0x31, 0x2d, 0x07, 0xf2, 0xce, 0xfd, 0xde, 0x17, 0xae, 0x11, 0xce, 0x41,
  0x1d, 0xf7, 0xe5, 0x39, 0xc7, 0x04, 0xfc, 0xff, 0x23, 0xf6, 0xf0, 0x28,
  0xeb, 0xd8, 0xff, 0x3b, 0x1a, 0x48, 0x1b, 0x20, 0xca, 0xfe, 0x2a, 0xe0,
  0x0a, 0x5d, 0xdb, 0xd1, 0x20, 0x14, 0x35, 0xd0, 0xc5, 0xf3, 0xfc, 0x22,
  0xc2, 0x30, 0x11, 0xd4, 0xec, 0xbb, 0x81, 0xc0, 0xfe, 0x09, 0xe6, 0x4d,
  0x0d, 0xee, 0xb4, 0xf5, 0x09, 0x3a, 0x23, 0xe8, 0xf9, 0x62, 0xf1, 0xf4,
  0x04, 0xdc, 0x10, 0x00, 0x20, 0x05, 0x15, 0xcd, 0xd3, 0xea, 0x05, 0x3b,
  0xb8, 0x58, 0x0f, 0x2a, 0x45, 0x1f, 0x36, 0xea, 0x01, 0x3a, 0x34, 0xff,
  0xf2, 0xfc, 0xfc, 0x2d, 0xdc, 0x7f, 0xdf, 0xea, 0xf8, 0x17, 0x46, 0x1d,
  0x21, 0xf9, 0xf1, 0xf9, 0x12, 0x23, 0xec, 0xf4, 0x12, 0xf7, 0xd5, 0xf1,
  0x01, 0xf6, 0xef, 0xea, 0xfb, 0x00, 0x13, 0xda, 0x0f, 0xfb, 0xf0, 0x09,
  0xe5, 0x28, 0x05, 0xea, 0x09, 0xdf, 0xf6, 0xfa, 0xe0, 0x16, 0x1c, 0xea,
  0x12, 0x06, 0xf3, 0x3e, 0xeb, 0x41, 0xea, 0x0f, 0xf3, 0xff, 0xef, 0xe4,
  0x24, 0x30, 0xb2, 0xc9, 0xba, 0x15, 0x1c, 0x0e, 0xda, 0xdf, 0xde, 0x1e,
  0x7f, 0x11, 0x99, 0xa6, 0xeb, 0x04, 0x00, 0xf9, 0x04, 0xe0, 0xf0, 0xfd,
  0xe2, 0xf8, 0x05, 0x44, 0x32, 0xb3, 0xe5, 0x20, 0x1b, 0x52, 0x39, 0x1a,
  0xd3, 0x0d, 0xf4, 0x49, 0x0b, 0x10, 0x19, 0x16, 0xc5, 0x23, 0x24, 0x69,
  0xdb, 0x4e, 0xe1, 0xdd, 0xb3, 0x37, 0xfb, 0x12, 0xbd, 0xef, 0xff, 0x18,
  0x3b, 0xf5, 0x4d, 0xd4, 0xd4, 0x41, 0xed, 0x46, 0xcc, 0xf7, 0xcd, 0x39,
  0xb1, 0x05, 0xcc, 0x45, 0x3b, 0x04, 0xda, 0x7f, 0xb4, 0x16, 0x00, 0xe5,
  0xe0, 0xe9, 0xfb, 0xd6, 0xeb, 0xed, 0xee, 0x21, 0xf6, 0xfb, 0xd5, 0x5b,
  0xe8, 0xf3, 0xb0, 0x05, 0xc5, 0x2d, 0xe8, 0xe0, 0xad, 0x45, 0x06, 0x82,
  0x32, 0x17, 0x74, 0xb3, 0x0f, 0xf0, 0xaf, 0xf9, 0xe3, 0x47, 0x37, 0x06,
  0xf2, 0x27, 0xe5, 0xe1, 0x6f, 0xd5, 0xef, 0xbf, 0xee, 0xfe, 0xc7, 0xaf,
  0xfa, 0x0e, 0xe5, 0x4c, 0xe4, 0xa7, 0xea, 0x3e, 0xf0, 0x27, 0xc2, 0x2a,
  0x12, 0xf2, 0x01, 0x3b, 0xc5, 0xaa, 0x02, 0xc3, 0xf8, 0xcb, 0xec, 0x2f,
  0xe8, 0x2f, 0x09, 0x06, 0x12, 0x3a, 0x5a, 0x17, 0xc3, 0xf5, 0xf9, 0x1b,
  0xf9, 0x9f, 0xe1, 0xbb, 0xf7, 0x2b, 0x01, 0x7f, 0x48, 0x6f, 0xf9, 0x39,
  0xf3, 0x3f, 0x26, 0xdc, 0xfa, 0xcf, 0x48, 0x27, 0x0f, 0xb0, 0x07, 0xd9,
  0xd0, 0x3f, 0x34, 0x62, 0xff, 0xfc, 0xbe, 0x49, 0xf8, 0xfb, 0xf4, 0x1f,
  0xc8, 0xe4, 0xad, 0x7f, 0xc5, 0x27, 0x04, 0xc4, 0xfb, 0xfe, 0x0e, 0xf9,
  0xb9, 0xc8, 0xf4, 0x68, 0x06, 0xf9, 0xe3, 0x00, 0x6e, 0x0f, 0xd2, 0xda,
  0xb4, 0xd9, 0xc2, 0xdc, 0xef, 0x11, 0x99, 0xb1, 0x79, 0x0d, 0xec, 0xc3,
  0x09, 0xe1, 0xf2, 0xfc, 0xe1, 0x28, 0x05, 0xce, 0x11, 0xaa, 0xf2, 0xc4,
  0x18, 0xd3, 0xd8, 0xe0, 0x23, 0x48, 0x0e, 0xd3, 0x04, 0x15, 0x17, 0xff,
  0xee, 0xef, 0xe1, 0x29, 0x15, 0xea, 0xb8, 0xc3, 0x0d, 0xd6, 0x0c, 0x49,
  0xd0, 0xbc, 0xfa, 0x90, 0xb2, 0xd7, 0xed, 0x28, 0x31, 0x12, 0x3e, 0xea,
  0x4d, 0x2f, 0x1a, 0xe6, 0xc1, 0xd8, 0x0c, 0x44, 0x20, 0x36, 0x14, 0xf6,
  0xd1, 0x23, 0xb8, 0x7f, 0x09, 0x32, 0xb3, 0xc8, 0xd0, 0x30, 0xfa, 0x2f,
  0xf0, 0xf8, 0x22, 0x0a, 0x43, 0xe6, 0x74, 0xe4, 0x0d, 0xf0, 0xe0, 0xe8,
  0x40, 0xf5, 0xe2, 0x48, 0xd4, 0x1e, 0x7f, 0xd6, 0xbc, 0xd0, 0xda, 0x18,
  0x1a, 0xed, 0x12, 0x03, 0x20, 0x11, 0xdd, 0xee, 0xf3, 0x21, 0x37, 0xb2,
  0xb7, 0x39, 0xdf, 0x1a, 0x8f, 0xf9, 0x23, 0x11, 0xfe, 0xd5, 0x07, 0xff,
  0xd2, 0x27, 0xed, 0xdf, 0xbb, 0x2d, 0x08, 0xf5, 0x01, 0x15, 0xd7, 0x15,
  0x74, 0x4a, 0x1b, 0xaf, 0x2d, 0x38, 0xdf, 0xfe, 0xae, 0x43, 0xe5, 0xc8,
  0x18, 0xcb, 0x0f, 0x32, 0xd2, 0x00, 0x00, 0x91, 0x60, 0x11, 0x1f, 0x30,
  0x04, 0xe3, 0x0a, 0xf2, 0xdf, 0xe3, 0x16, 0x0f, 0xda, 0xea, 0x00, 0xaf,
  0x1d, 0xe6, 0xa6, 0x0e, 0xf6, 0x5b, 0xfa, 0x3e, 0x30, 0x02, 0xba, 0x3e,
  0xea, 0x7b, 0x0d, 0xe4, 0xf9, 0x15, 0x00, 0x23, 0x0d, 0x07, 0xc4, 0x0c,
  0x3a, 0x02, 0xd0, 0xde, 0x44, 0xfb, 0x2b, 0x2c, 0x1d, 0x25, 0x00, 0xe6,
  0x2a, 0x03, 0x7f, 0x09, 0x38, 0xea, 0x3b, 0xfc, 0x14, 0xed, 0xe7, 0x48,
  0xe1, 0x3a, 0x8b, 0xa4, 0xe5, 0x2f, 0x44, 0x25, 0x19, 0xfd, 0xfe, 0xf3,
  0xd4, 0x67, 0x17, 0x9d, 0xfd, 0x23, 0x5c, 0xd6, 0x5e, 0xfa, 0x3c, 0xbc,
  0xcf, 0xd2, 0x44, 0xbc, 0x7f, 0xfe, 0xc0, 0x24, 0x38, 0x36, 0xbe, 0x19,
  0xf0, 0xaf, 0xd9, 0xbb, 0x0f, 0x20, 0xe6, 0x9a, 0x12, 0x39, 0xdc, 0xf6,
  0xdb, 0x1d, 0x24, 0x61, 0x69, 0x18, 0xdc, 0xfd, 0xe5, 0x24, 0xd0, 0xbb,
  0xf8, 0x0f, 0xc3, 0x11, 0x21, 0x99, 0xea, 0x06, 0xed, 0xf1, 0xd5, 0x3d,
  0x20, 0xfb, 0xef, 0x46, 0x0c, 0xcf, 0xf1, 0xd1, 0xc7, 0xf6, 0x08, 0x7f,
  0x0f, 0xd7, 0x0e, 0xf4, 0x52, 0x2d, 0x0e, 0xd5, 0xbe, 0x35, 0xd3, 0x15,
  0x06, 0xb1, 0xff, 0x0b, 0x2d, 0xf2, 0xec, 0x2d, 0x6f, 0x71, 0xd2, 0x44,
  0xdd, 0xf2, 0x2a, 0x16, 0x0f, 0xdc, 0x25, 0x23, 0x04, 0xa7, 0x0c, 0x2d,
  0x11, 0x0b, 0xf4, 0xfc, 0xab, 0x09, 0xef, 0x17, 0xd1, 0xfe, 0x41, 0x15,
  0xf0, 0x22, 0x9e, 0x00, 0xe7, 0xe5, 0x3b, 0x34, 0xe7, 0x2a, 0x37, 0x2f,
  0xf2, 0xcc, 0xcb, 0x53, 0x20, 0x3c, 0xb0, 0x40, 0x17, 0x46, 0x08, 0xf8,
  0xfe, 0x0b, 0xf0, 0x29, 0x0e, 0xec, 0xec, 0x5f, 0x04, 0xcd, 0xf1, 0x18,
  0xfb, 0x1d, 0xbe, 0x77, 0x5e, 0xf4, 0x40, 0xe3, 0xf2, 0x81, 0x04, 0xf5,
  0xae, 0x9f, 0x6e, 0xfb, 0xdd, 0xf4, 0xe3, 0xd5, 0xe4, 0x0b, 0x1c, 0xf9,
  0x81, 0xe5, 0x20, 0xdb, 0x08, 0xf8, 0xee, 0xca, 0xec, 0xc1, 0x1d, 0x30,
  0x15, 0xdb, 0xf5, 0x24, 0xba, 0xf5, 0xd6, 0x53, 0x06, 0x0f, 0xcd, 0x22,
  0xb5, 0x27, 0x47, 0x13, 0xc4, 0x32, 0x2e, 0xf1, 0xe2, 0xe2, 0x2d, 0xff,
  0xc6, 0x3e, 0x60, 0x44, 0xe0, 0x57, 0xf6, 0x67, 0xa0, 0x07, 0x0e, 0xdd,
  0xe7, 0x3c, 0xf9, 0x10, 0xe5, 0x09, 0xf0, 0x21, 0xdd, 0x0b, 0xc4, 0x28,
  0x1f, 0xff, 0xfc, 0x6b, 0x81, 0xee, 0x39, 0xd8, 0x4f, 0x27, 0xb1, 0xb8,
  0x1e, 0xea, 0xf7, 0x2a, 0x34, 0xab, 0xdd, 0xe9, 0xe4, 0xef, 0x08, 0x21,
  0x26, 0xd9, 0xe1, 0xf3, 0xf3, 0x1b, 0x54, 0xce, 0xd1, 0x21, 0xda, 0xe7,
  0xc6, 0x1d, 0x0f, 0xf3, 0x20, 0xda, 0x3b, 0x17, 0xbb, 0x39, 0xdf, 0x07,
  0xb8, 0xef, 0xe4, 0xce, 0xe4, 0xcf, 0x14, 0x03, 0x48, 0x0a, 0x04, 0xf6,
  0x02, 0xea, 0x07, 0x6f, 0x0c, 0x05, 0xec, 0x96, 0x35, 0xdf, 0x2d, 0xfd,
  0xf5, 0xb9, 0x0a, 0x14, 0x02, 0xfe, 0x50, 0xf5, 0x50, 0x01, 0x03, 0x18,
  0xf8, 0x18, 0x03, 0x0a, 0x00, 0x3a, 0xbf, 0x00, 0x17, 0xe4, 0x09, 0x08,
  0x16, 0xfb, 0xff, 0xcb, 0xfc, 0x04, 0xe7, 0x21, 0x2d, 0xdd, 0xd2, 0x21,
  0x1e, 0xe0, 0xe9, 0x5d, 0x7f, 0x0d, 0x2b, 0x29, 0x29, 0xc2, 0xe8, 0xea,
  0xc1, 0xb4, 0x31, 0xf7, 0x43, 0x1b, 0xb6, 0xf7, 0x19, 0x00, 0x04, 0xc3,
  0xe4, 0x6c, 0xf7, 0x10, 0x07, 0x09, 0x1b, 0xe4, 0x28, 0xd0, 0xf2, 0x34,
  0x03, 0xc7, 0x08, 0x81, 0x28, 0xe5, 0xdb, 0xc5, 0xda, 0x1f, 0xff, 0xb2,
  0xdf, 0x1f, 0xdb, 0x23, 0xef, 0x5d, 0xcd, 0xef, 0xf3, 0xeb, 0x03, 0x3c,
  0xaf, 0x32, 0xe7, 0x49, 0xfb, 0x39, 0xe1, 0x0b, 0xfe, 0x07, 0x03, 0xf1,
  0xe9, 0x1a, 0xfe, 0x19, 0xf5, 0x2a, 0x5e, 0x1c, 0xf1, 0x37, 0xef, 0xcb,
  0x01, 0x09, 0x02, 0x1d, 0xd3, 0x1e, 0xcb, 0x27, 0xf1, 0x51, 0x2c, 0x15,
  0x19, 0xf8, 0xc2, 0x3e, 0x2a, 0xfe, 0xb7, 0x00, 0x21, 0xe1, 0xc9, 0x02,
  0x15, 0xcf, 0x01, 0x8b, 0x7f, 0xfb, 0xee, 0xc6, 0xd3, 0x24, 0x30, 0x1e,
  0x2c, 0x08, 0x22, 0xca, 0x43, 0xe4, 0x03, 0x58, 0x0f, 0x50, 0x3f, 0xe7,
  0xca, 0xf8, 0xe0, 0x14, 0xf1, 0xd7, 0x5f, 0x10, 0xf5, 0xdf, 0x04, 0x4a,
  0x36, 0x20, 0xc5, 0xc1, 0x00, 0x01, 0x10, 0x36, 0xf5, 0x4d, 0x39, 0xdc,
  0xb8, 0xf5, 0xf2, 0xae, 0xe2, 0x02, 0xeb, 0x2e, 0xe4, 0x0a, 0xd3, 0x1a,
  0xf3, 0x0c, 0xf7, 0xc9, 0x10, 0x17, 0x03, 0x8d, 0x0c, 0x0d, 0x0a, 0x02,
  0x0f, 0x0c, 0x22, 0xe8, 0x31, 0x1f, 0xf5, 0x46, 0x20, 0x08, 0xbe, 0xe9,
  0xc7, 0x7f, 0xcb, 0x19, 0x5a, 0x2d, 0x02, 0x03, 0x21, 0x16, 0x01, 0xf5,
  0x9a, 0x3d, 0x5d, 0xe1, 0x17, 0x36, 0x67, 0x19, 0x0f, 0xf8, 0xf5, 0x6e,
  0xe9, 0x15, 0x00, 0xcc, 0xdd, 0xe3, 0xf5, 0x4b, 0x12, 0xc5, 0x01, 0x16,
  0x2b, 0x1e, 0xfd, 0xda, 0xb9, 0xe7, 0xd8, 0xd8, 0xed, 0xe9, 0x15, 0x27,
  0xd7, 0xda, 0xf7, 0xb7, 0x0b, 0xd3, 0x13, 0x2c, 0x6d, 0x7f, 0xce, 0xdf,
  0x1b, 0x0a, 0xc3, 0x28, 0x33, 0xf0, 0xbe, 0xad, 0xf1, 0x5b, 0xf7, 0xee,
  0x0e, 0x0a, 0xca, 0x04, 0xf4, 0x01, 0xdf, 0xf8, 0x32, 0xe2, 0x1e, 0x7f,
  0x0f, 0x01, 0xf9, 0x3e, 0x41, 0x2d, 0xd8, 0xf8, 0x00, 0xd4, 0x1f, 0x0e,
  0x15, 0x02, 0xee, 0xe9, 0x54, 0x00, 0xf8, 0xc6, 0xe5, 0x36, 0xb3, 0xc0,
  0x1c, 0x03, 0xe5, 0xf2, 0xd6, 0xd2, 0x3d, 0xd9, 0x67, 0x04, 0xd5, 0xff,
  0x19, 0x29, 0x10, 0x15, 0xcf, 0xc4, 0xfc, 0xeb, 0xef, 0xf7, 0x08, 0xb4,
  0x02, 0x33, 0xf4, 0xfd, 0xf1, 0xfe, 0x50, 0xf9, 0x2a, 0xf0, 0xc9, 0xd4,
  0x25, 0xe3, 0x2f, 0x20, 0xe8, 0xfa, 0x21, 0xea, 0x0d, 0xfe, 0xea, 0xe9,
  0x0b, 0x08, 0x7f, 0xfd, 0xb5, 0xfc, 0x12, 0xdb, 0x02, 0xf4, 0xe8, 0xf7,
  0x0b, 0xff, 0x91, 0xf1, 0x22, 0xc7, 0xf0, 0x1e, 0xea, 0xd8, 0xfb, 0xc3,
  0x0a, 0x37, 0x32, 0x1d, 0x5a, 0xec, 0x0b, 0xe8, 0x14, 0xe5, 0xf6, 0xee,
  0xe7, 0xf9, 0x15, 0xad, 0xc9, 0x21, 0xf6, 0x25, 0xd2, 0xfd, 0x4c, 0x18,
  0x37, 0x0f, 0xeb, 0x21, 0x06, 0x43, 0xcd, 0xc4, 0x14, 0x10, 0x0a, 0x2b,
  0xc7, 0x02, 0xd7, 0x02, 0x30, 0x2e, 0xc3, 0xfa, 0xfa, 0xfe, 0xdb, 0x44,
  0xef, 0xcd, 0xd4, 0x4d, 0xcd, 0x04, 0x30, 0x17, 0x17, 0xea, 0x31, 0xac,
  0x4e, 0x15, 0xf4, 0xdf, 0xe1, 0xdf, 0x43, 0x37, 0x3c, 0x11, 0x2b, 0x1c,
  0x0c, 0x13, 0xe3, 0x2a, 0x12, 0x7f, 0xfb, 0xd0, 0xc2, 0x14, 0x17, 0x20,
  0xce, 0x21, 0x38, 0x17, 0x06, 0xf8, 0x1d, 0x05, 0x12, 0xf3, 0xc4, 0xbb,
  0xf9, 0x08, 0x21, 0x16, 0xe2, 0xc6, 0xfd, 0x1e, 0x7f, 0xea, 0xd0, 0xda,
  0xfe, 0x00, 0xbe, 0xfc, 0x1f, 0xc1, 0xe8, 0x13, 0x13, 0xf1, 0x28, 0x2d,
  0x33, 0xf1, 0x34, 0xc7, 0x66, 0x31, 0x09, 0xf7, 0xd4, 0xe1, 0x24, 0x47,
  0x1a, 0x30, 0xf5, 0xfe, 0xdd, 0x12, 0xce, 0x31, 0xfb, 0x7d, 0x1c, 0xd1,
  0xdd, 0x0b, 0x09, 0x67, 0xd9, 0x02, 0xf3, 0x1f, 0x49, 0xd7, 0x3c, 0xe5,
  0x0b, 0xe0, 0xcf, 0x02, 0xe4, 0xf9, 0x19, 0xe0, 0x81, 0xfc, 0xd0, 0x95,
  0x14, 0x11, 0xc8, 0xb0, 0xc7, 0x17, 0x30, 0xf4, 0xe9, 0x0b, 0x08, 0xec,
  0xb7, 0x1d, 0x5c, 0x07, 0x49, 0xc3, 0xfa, 0x42, 0xa7, 0xd6, 0xe2, 0x1d,
  0xf9, 0x31, 0xc1, 0xb0, 0x17, 0x25, 0x0d, 0x38, 0x9c, 0xd8, 0x71, 0xd3,
  0x02, 0xe0, 0x09, 0x1f, 0xe6, 0x11, 0x0a, 0xf6, 0xc7, 0xfc, 0x36, 0x13,
  0x57, 0x43, 0xc5, 0xd0, 0xf8, 0xf9, 0x2f, 0xd0, 0x17, 0x05, 0x1d, 0xec,
  0xa7, 0x27, 0x0f, 0xd4, 0xfd, 0x01, 0x7f, 0xc9, 0x20, 0xfb, 0xf8, 0x19,
  0x1b, 0xdb, 0xe6, 0xef, 0x08, 0xed, 0xb7, 0xf6, 0x08, 0xf6, 0x14, 0xde,
  0x04, 0x01, 0x05, 0xfc, 0xa5, 0x45, 0x4d, 0x31, 0xd7, 0xde, 0x32, 0x28,
  0xf8, 0x3d, 0xf3, 0x38, 0xef, 0x2f, 0x13, 0x22, 0xc4, 0x23, 0xf5, 0xf5,
  0xe8, 0x45, 0x2a, 0x0e, 0xf9, 0xe6, 0xe8, 0x21, 0xe8, 0xe4, 0x00, 0x40,
  0xf1, 0x06, 0x40, 0xbd, 0xeb, 0xe8, 0x0e, 0xd4, 0x07, 0xe3, 0xf8, 0xdb,
  0xe5, 0x0d, 0x39, 0xed, 0x2c, 0x06, 0xb7, 0x7f, 0xf1, 0x22, 0x37, 0x00,
  0x00, 0x0b, 0xe6, 0x69, 0xf0, 0xca, 0x46, 0x34, 0xf2, 0xe7, 0x38, 0xdf,
  0xe7, 0x2c, 0x0c, 0x14, 0xf9, 0xf8, 0x4d, 0xe2, 0x2a, 0xc1, 0x4b, 0x04,
  0x2d, 0x1c, 0x01, 0x31, 0xf0, 0x44, 0x0e, 0xd7, 0x00, 0x11, 0xb4, 0xa3,
  0x00, 0x00, 0x00, 0x00, 0xbe, 0xae, 0xff, 0xff, 0x04, 0x00, 0x00, 0x00,
  0x00, 0x10, 0x00, 0x00, 0x2a, 0xe1, 0xd1, 0xdb, 0xd8, 0x47, 0x76, 0x2c,
  0xa5, 0x45, 0xde, 0xaa, 0xf0, 0xe6, 0xaa, 0xa9, 0xfa, 0x0f, 0xb2, 0xf6,
  0xbf, 0xef, 0x54, 0xb6, 0x57, 0x7f, 0xa0, 0xe5, 0x11, 0x13, 0x3a, 0xe6,
  0x55, 0xc4, 0x35, 0x4e, 0xcb, 0x08, 0xf3, 0xcf, 0xd8, 0x48, 0xde, 0x06,
  0xe0, 0x55, 0xae, 0x0d, 0x02, 0xe1, 0x02, 0x53, 0xc4, 0x97, 0x09, 0x22,
  0xf5, 0xfd, 0x18, 0x21, 0xab, 0x1b, 0x39, 0x3b, 0x2c, 0x3b, 0xe0, 0xce,
  0xbe, 0x9d, 0x07, 0xff, 0xf1, 0xe9, 0xe8, 0x53, 0x0d, 0x0e, 0xca, 0xd4,
  0xe6, 0x1b, 0x25, 0x05, 0xcc, 0x52, 0xbd, 0xca, 0x14, 0x41, 0x01, 0x71,
  0xf2, 0x45, 0xff, 0xe0, 0x7f, 0x22, 0x07, 0x7a, 0xe5, 0xcc, 0x33, 0xf8,
  0x3d, 0xc6, 0x3a, 0xfc, 0x07, 0xf9, 0xee, 0x49, 0xc9, 0x2a, 0xf5, 0xd1,
  0x4a, 0xba, 0x4a, 0xf2, 0x39, 0x07, 0x2c, 0xda, 0xc0, 0xfa, 0x3e, 0x00,
  0x1e, 0xef, 0x0d, 0x04, 0xb7, 0xe0, 0x3b, 0xf1, 0xce, 0xd0, 0xe3, 0xfb,
  0x3a, 0x44, 0x2b, 0x96, 0xcf, 0xd0, 0xde, 0x26, 0x10, 0x17, 0xfb, 0x3f,
  0xf4, 0xfb, 0x23, 0x09, 0x7f, 0x3f, 0x4e, 0x14, 0x9e, 0xf0, 0xeb, 0x65,
  0xe3, 0xcf, 0x11, 0xd7, 0x40, 0xfe, 0xf1, 0xda, 0x04, 0x1b, 0xf8, 0x60,
  0xd3, 0x27, 0x02, 0xf4, 0x11, 0x0f, 0x29, 0x28, 0x38, 0xd9, 0xe7, 0xf0,
  0x01, 0x23, 0xf6, 0xda, 0x40, 0x99, 0xe5, 0x52, 0x11, 0x4c, 0x79, 0xe6,
  0xb0, 0x14, 0xd9, 0xce, 0x0e, 0xd6, 0x2b, 0xd0, 0x54, 0x8d, 0x04, 0x44,
  0xa9, 0x19, 0x2a, 0xc4, 0x40, 0xb3, 0xc8, 0x86, 0x0c, 0xb6, 0x10, 0x9c,
  0x4b, 0xea, 0x2d, 0x2f, 0xde, 0xcb, 0xd1, 0xdf, 0xb8, 0x4a, 0xd7, 0xb5,
  0x96, 0xcd, 0xfb, 0xe1, 0xc3, 0x01, 0x45, 0xcd, 0x32, 0xcb, 0xee, 0xf9,
  0x56, 0x50, 0x2a, 0x1a, 0xec, 0xf6, 0xeb, 0x81, 0xc2, 0xee, 0x32, 0x1f,
  0xdd, 0x09, 0xfc, 0x2b, 0xfb, 0x0f, 0xf3, 0xe6, 0xea, 0x08, 0xe0, 0x5a,
  0x55, 0xb7, 0x16, 0x59, 0x31, 0x40, 0xed, 0x16, 0x01, 0xe2, 0x27, 0xd9,
  0xac, 0xb2, 0xe8, 0xf0, 0x95, 0x45, 0x20, 0xb3, 0xdb, 0x6b, 0xf5, 0xe9,
  0xec, 0xee, 0xde, 0xd7, 0xae, 0x23, 0xeb, 0xfb, 0xd1, 0x35, 0x7f, 0xff,
  0x0b, 0xbf, 0x07, 0xb0, 0xed, 0xe7, 0x35, 0xe0, 0x31, 0xe3, 0xf8, 0x91,
  0x5d, 0x07, 0xd3, 0xc4, 0xda, 0xdb, 0xa9, 0x3e, 0x0e, 0xc4, 0x53, 0x34,
  0xed, 0xd6, 0x1c, 0xed, 0x41, 0xe4, 0x03, 0x28, 0xc8, 0x3e, 0x15, 0xe1,
  0x18, 0x17, 0xbb, 0xd7, 0xcd, 0x17, 0x16, 0xd4, 0x4b, 0x13, 0xae, 0x0c,
  0x1f, 0x7f, 0xf5, 0xc8, 0x24, 0x00, 0x66, 0x09, 0x9c, 0xfa, 0xde, 0xfe,
  0x2d, 0x35, 0x25, 0x92, 0x32, 0x4e, 0xe3, 0x97, 0x39, 0x40, 0x5a, 0x16,
  0x16, 0x72, 0x17, 0xd7, 0x7f, 0x17, 0xd7, 0x15, 0x23, 0xfe, 0x1c, 0x2f,
  0x03, 0x11, 0xd1, 0xec, 0xec, 0xfd, 0x45, 0x1e, 0xe6, 0x14, 0xdc, 0xe4,
  0x05, 0xe7, 0x47, 0xe7, 0xbb, 0x4c, 0x05, 0xf1, 0xa2, 0xdd, 0xb4, 0x3e,
  0xdd, 0xf6, 0x3c, 0x0d, 0x6b, 0x20, 0x10, 0xfb, 0xd6, 0x25, 0xff, 0x14,
  0x0f, 0xa9, 0x25, 0xc0, 0x30, 0x48, 0xe5, 0x06, 0x0c, 0xe8, 0xe3, 0x27,
  0x2e, 0x37, 0x00, 0xf2, 0x1d, 0xd9, 0xd4, 0x18, 0x21, 0x2f, 0x4c, 0xe4,
  0xdf, 0x6b, 0xc4, 0x23, 0xa5, 0x24, 0xca, 0xfb, 0x49, 0x95, 0xd6, 0xe5,
  0x5e, 0xac, 0xbb, 0x24, 0xf2, 0xa5, 0xd4, 0xcf, 0x19, 0xf9, 0xd7, 0xf2,
  0xef, 0x03, 0x38, 0xc4, 0xc9, 0xeb, 0x2c, 0x0c, 0xe5, 0xb9, 0x8f, 0xc4,
  0xce, 0x34, 0xc7, 0x85, 0x0a, 0x81, 0xdc, 0x23, 0xf1, 0x27, 0xef, 0xca,
  0xc7, 0x33, 0x0a, 0x3e, 0xd7, 0xd6, 0xd6, 0xca, 0x07, 0xf6, 0xf7, 0xd0,
  0x62, 0xe3, 0x24, 0x4a, 0x01, 0x13, 0xb2, 0x10, 0x9a, 0x46, 0x0f, 0x24,
  0xf1, 0x3f, 0xad, 0xeb, 0x60, 0x08, 0xe1, 0x04, 0x2b, 0x0f, 0x24, 0xe0,
  0x31, 0x10, 0x02, 0x36, 0x76, 0x5b, 0xe6, 0xe2, 0x97, 0x09, 0xab, 0x0b,
  0x0f, 0x11, 0xd7, 0xef, 0xe4, 0xec, 0x44, 0xda, 0x40, 0xb8, 0xbb, 0x7f,
  0x95, 0x0e, 0x13, 0x11, 0xb5, 0xd1, 0xdc, 0xcd, 0xd5, 0xd5, 0xd7, 0x14,
  0x27, 0x57, 0xe9, 0xa0, 0xde, 0xb4, 0x46, 0xfd, 0xbe, 0xfb, 0xfe, 0x03,
  0xcf, 0x4c, 0x20, 0x29, 0x28, 0x29, 0xd5, 0x08, 0x30, 0xef, 0xc0, 0xc5,
  0x1c, 0xd2, 0x15, 0x59, 0x56, 0x0e, 0x42, 0x86, 0xd7, 0xca, 0x18, 0xd7,
  0xa2, 0xee, 0xbb, 0xb4, 0x0f, 0xce, 0xe3, 0xed, 0x2f, 0x0f, 0xde, 0xf1,
  0xce, 0x22, 0xd6, 0xbf, 0xc9, 0xde, 0x07, 0x4b, 0xfe, 0x1b, 0xcb, 0x7f,
  0x97, 0xef, 0xba, 0xd6, 0xd9, 0xe5, 0xf0, 0x06, 0x26, 0xd8, 0x27, 0x0e,
  0x0a, 0x43, 0xd7, 0x25, 0xde, 0x02, 0xe6, 0x52, 0x2f, 0xee, 0x09, 0xd7,
  0xfd, 0x81, 0xd7, 0x46, 0x38, 0x11, 0xa3, 0x4c, 0x15, 0x98, 0xc6, 0xe2,
  0xf6, 0x37, 0x3a, 0xf8, 0xe2, 0x2e, 0x3a, 0x0d, 0x18, 0xc7, 0xb7, 0x5c,
  0xc0, 0xd5, 0xdf, 0xe4, 0xbf, 0x06, 0xdf, 0xc0, 0x20, 0xfa, 0xea, 0x0e,
  0x30, 0xc0, 0x08, 0xef, 0x12, 0xf4, 0xfa, 0xf4, 0xf1, 0xeb, 0x12, 0x0d,
  0x21, 0xc7, 0x59, 0x20, 0xb1, 0xda, 0x00, 0x11, 0x33, 0xcb, 0x22, 0x62,
  0x32, 0xc4, 0xcd, 0xff, 0xc1, 0x05, 0xf0, 0xb3, 0x33, 0xf5, 0xfc, 0xdb,
  0x7f, 0x39, 0x52, 0xc3, 0x4b, 0xf8, 0xf0, 0x0b, 0x20, 0x56, 0x57, 0xd0,
  0xfc, 0xff, 0xfb, 0xfb, 0xd9, 0x22, 0x18, 0x41, 0xfe, 0xc1, 0x9f, 0x9f,
  0xcc, 0x0a, 0x19, 0x48, 0xe1, 0xb9, 0xd4, 0x07, 0x0b, 0xf9, 0xfc, 0xc4,
  0x38, 0xf9, 0x23, 0x55, 0xcf, 0x5a, 0xde, 0xd3, 0x18, 0xea, 0xc7, 0xc7,
  0x73, 0xc2, 0x2d, 0xc5, 0xee, 0xe1, 0x1f, 0x1c, 0x35, 0xc5, 0x92, 0x6e,
  0xc0, 0xee, 0xf4, 0x35, 0x24, 0xc7, 0x05, 0x08, 0xe4, 0x05, 0x92, 0x32,
  0x3a, 0x08, 0x49, 0xc5, 0x0e, 0xfc, 0x89, 0xeb, 0xc5, 0xf1, 0xfe, 0x10,
  0xc9, 0x2e, 0xd3, 0x94, 0x3c, 0xc6, 0x08, 0x81, 0x35, 0xe4, 0xf4, 0xd8,
  0x47, 0xd6, 0xd3, 0xe3, 0xb5, 0xf2, 0x4e, 0x22, 0x25, 0x06, 0x25, 0xce,
  0x24, 0xf3, 0x3b, 0xf5, 0x24, 0xd0, 0x29, 0x03, 0x31, 0x27, 0xfa, 0x22,
  0xf8, 0x81, 0x1f, 0xd6, 0x02, 0x06, 0x23, 0x33, 0xb1, 0x37, 0xf6, 0x09,
  0xdc, 0x3b, 0x5c, 0xd8, 0x00, 0x18, 0x10, 0x47, 0xac, 0xda, 0x24, 0x03,
  0x1c, 0xd4, 0x13, 0xfe, 0xf8, 0x19, 0x6a, 0x60, 0x1a, 0xef, 0xdc, 0x22,
  0xe0, 0xea, 0x3f, 0xee, 0xbf, 0x11, 0xcd, 0x0f, 0xe1, 0x33, 0x5e, 0x19,
  0xf0, 0x0f, 0xb3, 0x2c, 0xb7, 0x12, 0x3e, 0xef, 0xce, 0x5f, 0x2c, 0x1a,
  0x0b, 0x32, 0xaf, 0x00, 0xfe, 0xea, 0x3e, 0xb5, 0x24, 0xb8, 0xd3, 0xe6,
  0x44, 0x0b, 0xb2, 0x2f, 0xd5, 0x1b, 0xba, 0xdc, 0x1b, 0x38, 0x2a, 0x22,
  0x1a, 0x38, 0xef, 0xd4, 0xd5, 0xbf, 0x77, 0xec, 0xc9, 0x04, 0xa3, 0xaa,
  0x81, 0xac, 0x1d, 0x05, 0xd3, 0xd6, 0xd3, 0x22, 0x02, 0x1c, 0xb2, 0x37,
  0x04, 0x20, 0xea, 0xd8, 0xca, 0xd2, 0xf0, 0xd8, 0xca, 0x4c, 0x14, 0xda,
  0x86, 0xf9, 0x34, 0xec, 0x14, 0x47, 0xf5, 0x35, 0x43, 0x16, 0xd8, 0x0e,
  0x21, 0xde, 0xc0, 0xe1, 0xd7, 0xc1, 0xc7, 0xdb, 0xed, 0xe6, 0x0f, 0x09,
  0xfb, 0x42, 0xf0, 0x02, 0xec, 0xd4, 0x06, 0xc0, 0xa6, 0xed, 0xf2, 0x1b,
  0xaf, 0xb2, 0xd4, 0x50, 0x3c, 0x28, 0x3b, 0xe1, 0x24, 0x01, 0x0d, 0x36,
  0x1a, 0x7f, 0x30, 0xfe, 0xd3, 0xdd, 0xad, 0xa0, 0x05, 0x03, 0x4c, 0xbe,
  0xe7, 0x95, 0xfc, 0x34, 0x50, 0xc5, 0xe5, 0xdd, 0xc5, 0x13, 0x50, 0xf5,
  0xdc, 0x31, 0x06, 0xbd, 0x12, 0x18, 0xdd, 0xfc, 0xb8, 0x6d, 0xe8, 0x06,
  0xb7, 0x4b, 0x38, 0x1b, 0x36, 0x1b, 0xbf, 0x61, 0xcc, 0xd0, 0x7b, 0xe0,
  0xe2, 0xbc, 0x08, 0x26, 0x18, 0xae, 0x01, 0x35, 0x15, 0x33, 0xe4, 0xd8,
  0x7f, 0xfb, 0x30, 0xc5, 0xcf, 0xdc, 0xd5, 0x05, 0x13, 0xec, 0x10, 0xfa,
  0xdb, 0x04, 0xa1, 0x10, 0x2e, 0xe9, 0x19, 0xed, 0x06, 0xef, 0x1a, 0xbd,
  0xd4, 0xf5, 0xe5, 0xee, 0xfb, 0x1e, 0x40, 0xe5, 0x18, 0x0b, 0x0c, 0xf4,
  0x1f, 0xb3, 0xe6, 0x03, 0x0e, 0xbb, 0x38, 0x09, 0x52, 0x99, 0x18, 0x81,
  0xef, 0x33, 0xeb, 0x2b, 0xea, 0x37, 0xfa, 0x0b, 0x0f, 0xfc, 0xf0, 0xe7,
  0x36, 0xd0, 0x19, 0x28, 0xc1, 0x21, 0x13, 0x20, 0x0e, 0xe5, 0xf7, 0xcd,
  0xf6, 0xde, 0xc6, 0x1c, 0xdc, 0x29, 0x3d, 0x05, 0xc2, 0xec, 0x0c, 0xcc,
  0xf9, 0x00, 0xc7, 0xe2, 0xca, 0xc7, 0x21, 0xf7, 0xee, 0xfc, 0xb8, 0x38,
  0x11, 0xde, 0x45, 0xd8, 0x4f, 0x26, 0x3c, 0xd8, 0x20, 0xce, 0xf9, 0xe1,
  0x7f, 0xd6, 0x13, 0xe7, 0xeb, 0x2a, 0x21, 0xef, 0x40, 0xe6, 0x09, 0x22,
  0x00, 0xce, 0xf9, 0x9f, 0x14, 0xde, 0xe2, 0x21, 0xcd, 0x69, 0x0d, 0xdc,
  0xfb, 0x2d, 0xe6, 0xdf, 0x18, 0xe5, 0xf9, 0x01, 0xcf, 0x2a, 0x0f, 0x05,
  0xd2, 0xf6, 0x05, 0xf3, 0x26, 0xe9, 0x7f, 0xd6, 0x98, 0xea, 0x35, 0x18,
  0x05, 0xf3, 0xc6, 0xf5, 0xf4, 0x1d, 0xaa, 0x11, 0x18, 0xb5, 0x25, 0x08,
  0xfe, 0xbd, 0xde, 0x09, 0x05, 0x6f, 0xd5, 0xbd, 0xb9, 0xd7, 0xe2, 0x09,
  0x1f, 0x4b, 0x00, 0xfa, 0x45, 0xd5, 0x11, 0xdf, 0x21, 0x10, 0x01, 0x04,
  0xdf, 0xf0, 0x03, 0x14, 0x1e, 0xfe, 0xfb, 0x30, 0x18, 0xde, 0x0c, 0xd7,
  0x4c, 0x33, 0x66, 0x34, 0x41, 0xfd, 0xd4, 0x2d, 0xfb, 0x39, 0xf4, 0x74,
  0xd5, 0xce, 0x9f, 0x09, 0x0d, 0xef, 0xe0, 0x2f, 0xe3, 0x48, 0xb6, 0x20,
  0xe8, 0xce, 0x08, 0xdf, 0x5a, 0x0b, 0x7f, 0xba, 0x81, 0x06, 0x31, 0x75,
  0xf2, 0xed, 0x9c, 0x47, 0x97, 0x0b, 0xee, 0x23, 0x67, 0xfc, 0xb2, 0x15,
  0x01, 0xf5, 0xd6, 0xdf, 0xf5, 0xe0, 0x0c, 0xf8, 0xda, 0x69, 0x32, 0x17,
  0xe8, 0x04, 0x2d, 0xa8, 0xd1, 0xf3, 0x24, 0xb9, 0xf8, 0x07, 0x08, 0xd3,
  0xb8, 0xcb, 0xe7, 0xed, 0xd2, 0xc8, 0x27, 0x24, 0x31, 0xeb, 0x02, 0x50,
  0x3b, 0x2a, 0x38, 0xad, 0xf8, 0xbe, 0x37, 0xbb, 0xc7, 0xd8, 0xbf, 0xe2,
  0xfb, 0xf4, 0xc4, 0xf1, 0xc1, 0x1e, 0x81, 0x3f, 0xb9, 0x06, 0x23, 0xdf,
  0x26, 0xd5, 0xc3, 0x0d, 0xb1, 0x25, 0xc1, 0xca, 0xdb, 0x31, 0xde, 0x08,
  0x2b, 0xce, 0x20, 0x0d, 0xd7, 0x2b, 0xe7, 0xec, 0x4f, 0xf0, 0x04, 0xe8,
  0xc3, 0xfd, 0x3c, 0xde, 0x93, 0x26, 0xfb, 0x30, 0x1c, 0x23, 0x3a, 0xd2,
  0x72, 0xaa, 0xd5, 0xd0, 0xfd, 0x0c, 0x49, 0xba, 0x4f, 0xb6, 0xef, 0xd9,
  0xba, 0x9c, 0xbb, 0xca, 0x18, 0xb7, 0xcb, 0x35, 0x23, 0xf9, 0x96, 0xee,
  0x03, 0xf4, 0x3b, 0xf8, 0x20, 0x24, 0x18, 0x23, 0x0e, 0x2e, 0xde, 0xfd,
  0x49, 0xf2, 0xab, 0x13, 0x7f, 0x42, 0x4c, 0x15, 0xf4, 0x4e, 0xe9, 0x02,
  0xda, 0x9e, 0xf5, 0xdd, 0xda, 0xe5, 0xd4, 0x67, 0xa4, 0xe9, 0x05, 0xcd,
  0x14, 0x1c, 0x0f, 0x49, 0x81, 0x11, 0x1f, 0xf2, 0xea, 0xd0, 0x46, 0xfb,
  0xc9, 0x0a, 0xf4, 0x51, 0xc7, 0x16, 0xb3, 0xc2, 0x0e, 0x07, 0xb8, 0x27,
  0x7f, 0x51, 0x9b, 0xa2, 0x09, 0xd1, 0xd5, 0xff, 0xfb, 0xd7, 0xa1, 0x12,
  0x2f, 0xd6, 0x46, 0x23, 0xce, 0xca, 0xd8, 0xe8, 0xfc, 0xa0, 0xbe, 0xdc,
  0xf8, 0xb1, 0xa7, 0xf3, 0x67, 0xe2, 0xba, 0x13, 0x4d, 0xbb, 0x0f, 0x3c,
  0xdc, 0x41, 0x05, 0x09, 0x40, 0x2c, 0x43, 0x05, 0x5a, 0xdc, 0xcf, 0xfe,
  0xfb, 0x0c, 0xe5, 0x0d, 0x38, 0x21, 0xc0, 0x00, 0x7f, 0x4f, 0xd1, 0xd5,
  0x51, 0xdb, 0x71, 0x2c, 0xef, 0x2e, 0x0d, 0xf6, 0xfc, 0x05, 0x3b, 0xd8,
  0x03, 0x28, 0xd0, 0x25, 0x30, 0xfc, 0x40, 0x01, 0xe3, 0x47, 0x35, 0x17,
  0x4c, 0x46, 0xf8, 0x41, 0xc5, 0xa1, 0xeb, 0xdc, 0xe1, 0x25, 0x46, 0x06,
  0x03, 0xf8, 0xf1, 0x51, 0x33, 0xf4, 0x08, 0x05, 0xfe, 0x92, 0x26, 0xbf,
  0x7f, 0x3e, 0xc4, 0x05, 0x13, 0xef, 0x27, 0x32, 0x4c, 0xf7, 0xf2, 0x05,
  0xd4, 0xd2, 0xc7, 0x26, 0xfe, 0xe1, 0xff, 0x60, 0xd1, 0xf3, 0xdd, 0xea,
  0x0f, 0xc8, 0xe8, 0x0a, 0x38, 0xe2, 0x58, 0xe2, 0xec, 0xe7, 0x63, 0xf8,
  0xb7, 0xb0, 0xd3, 0x0b, 0xd4, 0x1f, 0x09, 0xf6, 0x1c, 0xc6, 0x39, 0x45,
  0x31, 0x6c, 0x06, 0xf1, 0xa5, 0x0a, 0x46, 0x3d, 0xd4, 0xcf, 0x30, 0xd6,
  0xc6, 0xfc, 0x08, 0x96, 0x10, 0xd5, 0x02, 0x3b, 0x22, 0x02, 0x60, 0x03,
  0x12, 0x24, 0xdd, 0x42, 0xdf, 0x12, 0xe2, 0x87, 0x39, 0x66, 0x12, 0xfb,
  0xf4, 0x7c, 0xc4, 0x17, 0x07, 0x13, 0x22, 0x2e, 0xc4, 0x11, 0x32, 0xec,
  0x81, 0xee, 0x98, 0x13, 0x95, 0x09, 0xd1, 0xe4, 0x9a, 0x1d, 0x0b, 0x35,
  0xe7, 0x3a, 0xdf, 0xde, 0xd3, 0x1f, 0x3a, 0x2e, 0x1d, 0x03, 0xdd, 0x0f,
  0xf2, 0x05, 0xdb, 0xb6, 0xd5, 0xc9, 0xf8, 0x9d, 0x30, 0x38, 0x24, 0xbc,
  0xdd, 0x14, 0x08, 0x3a, 0x1c, 0xdc, 0xd9, 0xbc, 0xb3, 0xeb, 0xd2, 0xea,
  0x00, 0x23, 0x1a, 0x27, 0x28, 0x08, 0x4b, 0x10, 0xd0, 0x18, 0xfb, 0x51,
  0xc0, 0xdc, 0x9d, 0x83, 0x0f, 0xe7, 0xfd, 0xc0, 0x3e, 0xba, 0xec, 0xcc,
  0x81, 0x82, 0x35, 0xbb, 0xd1, 0x00, 0x2b, 0xec, 0x39, 0xe6, 0x25, 0xdf,
  0xe9, 0x3a, 0x20, 0x33, 0xd1, 0xe4, 0xa6, 0xe6, 0xe1, 0x1e, 0x14, 0x9c,
  0xbd, 0xe4, 0xc8, 0x9e, 0xa9, 0xe2, 0x62, 0x0d, 0x43, 0xf0, 0xbb, 0xe6,
  0xcc, 0xf9, 0x00, 0x19, 0xa7, 0x23, 0xac, 0x53, 0x83, 0x11, 0xa3, 0xae,
  0xde, 0x4f, 0xf0, 0x21, 0x14, 0xe1, 0xf4, 0xfb, 0xab, 0x11, 0xf4, 0x0e,
  0xee, 0xd0, 0xc4, 0x20, 0x25, 0x81, 0x47, 0x31, 0xe3, 0x01, 0xc0, 0x21,
  0x0c, 0xe8, 0x9f, 0x2d, 0xba, 0xd9, 0xde, 0x25, 0x13, 0xe0, 0x11, 0xae,
  0x09, 0xf0, 0x56, 0xab, 0x1b, 0xd3, 0xfa, 0x4d, 0x2c, 0x0d, 0x25, 0xfa,
  0x23, 0x2a, 0x22, 0x0e, 0xb3, 0xe5, 0xe2, 0xbc, 0x09, 0xed, 0x24, 0x0b,
  0xfd, 0x27, 0x0f, 0x23, 0x1f, 0xe2, 0xf1, 0x17, 0x24, 0x0d, 0x24, 0x67,
  0x0e, 0x27, 0x6b, 0x17, 0x5c, 0xae, 0xc6, 0x08, 0x00, 0x81, 0x40, 0x34,
  0x5b, 0x24, 0xb6, 0x41, 0x01, 0x5f, 0xcd, 0x41, 0x92, 0x55, 0xda, 0x3c,
  0xd5, 0x70, 0xb0, 0x00, 0xb3, 0x1c, 0xac, 0x68, 0x05, 0xbc, 0xc1, 0xe6,
  0x53, 0xef, 0x13, 0x4f, 0xdf, 0x20, 0x55, 0x1d, 0x4a, 0xeb, 0x2d, 0x11,
  0x1e, 0x00, 0x29, 0xf2, 0x73, 0x15, 0x21, 0xc0, 0xd3, 0x46, 0x35, 0x33,
  0x6a, 0x33, 0xfc, 0xe0, 0xe0, 0xff, 0x65, 0xad, 0xfc, 0x81, 0xf4, 0x16,
  0x64, 0x9a, 0x5c, 0x3b, 0x12, 0xd7, 0x6c, 0xbd, 0x16, 0x19, 0x19, 0xdb,
  0xb5, 0xe7, 0xdd, 0x09, 0x42, 0xe4, 0xfd, 0x5c, 0x1e, 0x0b, 0xf2, 0x15,
  0x17, 0x0f, 0xff, 0x45, 0xfe, 0xf7, 0x07, 0x3c, 0xfe, 0x20, 0x28, 0xf9,
  0xb1, 0x7f, 0xd6, 0xd4, 0xcc, 0x2a, 0xe7, 0x32, 0x2d, 0xf6, 0xca, 0xbc,
  0xdc, 0xdc, 0x03, 0xd3, 0x00, 0x09, 0xd7, 0xfd, 0x1f, 0xf0, 0x18, 0xdf,
  0xd2, 0xc1, 0xee, 0xeb, 0xfe, 0xc7, 0xf9, 0xee, 0xb4, 0x23, 0x2b, 0x43,
  0x55, 0x2b, 0xea, 0x3d, 0xd4, 0x0c, 0xee, 0xd8, 0x9c, 0xd2, 0x36, 0xc5,
  0x7f, 0x2d, 0x41, 0xff, 0xcd, 0xa2, 0x27, 0x51, 0x74, 0x8d, 0x22, 0x0c,
  0xde, 0xaf, 0x37, 0xaa, 0xb3, 0xf9, 0xb7, 0x8a, 0xd0, 0x0c, 0xde, 0xdc,
  0x6d, 0x47, 0xc2, 0xd4, 0x02, 0xce, 0x69, 0x99, 0x36, 0xbe, 0x5a, 0x1b,
  0x9d, 0x9f, 0x56, 0xa5, 0xeb, 0x39, 0x67, 0x43, 0x34, 0x54, 0xd6, 0x50,
  0xc8, 0x2a, 0xed, 0x37, 0x0a, 0xb2, 0x08, 0xd5, 0xdb, 0x11, 0x25, 0x27,
  0xc1, 0x16, 0xe5, 0x1b, 0xf1, 0x59, 0x68, 0xdd, 0x03, 0xec, 0xf0, 0xeb,
  0x21, 0x13, 0xea, 0x0f, 0x0e, 0x81, 0xa6, 0xe5, 0x00, 0xbf, 0xfe, 0xf1,
  0x2c, 0x1c, 0x03, 0x10, 0x00, 0xec, 0x06, 0xea, 0x09, 0x66, 0x0d, 0x00,
  0x03, 0xf9, 0xf4, 0x11, 0x0f, 0x2c, 0xe0, 0x07, 0xa2, 0x47, 0x1a, 0xae,
  0x27, 0xdd, 0xf7, 0xc0, 0x21, 0x6d, 0x58, 0x5d, 0x6c, 0xd2, 0xe9, 0x08,
  0xae, 0xf9, 0x3a, 0x3b, 0xb9, 0x0b, 0xd8, 0x36, 0x69, 0x19, 0x15, 0xfd,
  0x29, 0xbd, 0x64, 0x49, 0xcf, 0xc7, 0xf5, 0x15, 0x50, 0x10, 0xf5, 0x04,
  0xff, 0xb0, 0x3c, 0xb5, 0x58, 0x50, 0x2b, 0x43, 0xc4, 0xfe, 0xb3, 0xff,
  0x12, 0x62, 0xf7, 0xbf, 0xe4, 0x87, 0x81, 0x08, 0x8e, 0xf6, 0x2f, 0xdf,
  0x30, 0x0c, 0x22, 0xdc, 0xf4, 0x0a, 0x1a, 0xe9, 0xfb, 0x22, 0x19, 0xc0,
  0x49, 0xe0, 0x1e, 0xea, 0x34, 0x14, 0xff, 0x0b, 0xc1, 0xb0, 0xb8, 0xd0,
  0xb8, 0x07, 0x16, 0xd2, 0x1b, 0x9a, 0xdf, 0xbb, 0xcd, 0xf2, 0xc0, 0xc6,
  0x25, 0xdf, 0x11, 0x41, 0x3e, 0xec, 0xd5, 0xfd, 0x4d, 0x36, 0x1d, 0xf3,
  0x24, 0x13, 0x00, 0xf9, 0xe0, 0x4e, 0xf0, 0xfe, 0xe8, 0x1e, 0xe5, 0xf6,
  0x60, 0xfe, 0xe5, 0x19, 0x7c, 0x29, 0xf0, 0xf9, 0xa6, 0xd8, 0x9e, 0x2e,
  0x1a, 0xe4, 0x81, 0x23, 0xde, 0x15, 0xe6, 0xc9, 0x8c, 0xbf, 0xc6, 0x66,
  0x7f, 0x0a, 0x44, 0xd5, 0x1f, 0x4a, 0x25, 0xa1, 0xfa, 0x1c, 0xca, 0x1e,
  0xfe, 0xff, 0xf5, 0xfb, 0xda, 0xf2, 0xcd, 0xfe, 0x3e, 0x24, 0x07, 0xb7,
  0xd4, 0xe8, 0xec, 0x0a, 0x61, 0x30, 0x19, 0xe8, 0x1c, 0x02, 0xe2, 0xb7,
  0xde, 0x18, 0x31, 0x5b, 0x61, 0xbc, 0x2b, 0xf6, 0xe3, 0x49, 0xfa, 0xe8,
  0x09, 0x09, 0x40, 0x1d, 0xee, 0xf2, 0xed, 0xd2, 0xdd, 0x35, 0x35, 0x31,
  0x21, 0x28, 0xc9, 0x17, 0x1d, 0xfb, 0x2b, 0x40, 0x31, 0xc7, 0xe0, 0x07,
  0x01, 0xf2, 0xe8, 0x45, 0x41, 0x0b, 0xd3, 0xec, 0x09, 0xe3, 0x1a, 0xbd,
  0x10, 0x1b, 0xd9, 0x25, 0xc4, 0x09, 0xd5, 0xc3, 0x02, 0xa3, 0x88, 0xfd,
  0xdd, 0xdc, 0xa8, 0xd8, 0xe5, 0xf5, 0xd4, 0xd7, 0x7f, 0xf7, 0x05, 0xd7,
  0xef, 0x1d, 0x05, 0xf7, 0xd5, 0xd2, 0x2a, 0xaf, 0xe9, 0x0c, 0x08, 0xcf,
  0xfb, 0x01, 0x35, 0xe0, 0xeb, 0x45, 0xfa, 0xf5, 0x16, 0xc2, 0x14, 0x04,
  0x4d, 0x1b, 0x12, 0x20, 0xad, 0xee, 0x27, 0x32, 0x2e, 0x2b, 0x2b, 0xc8,
  0x06, 0xf1, 0x08, 0x0f, 0x51, 0x6d, 0xcd, 0xec, 0xd6, 0xfa, 0x0f, 0xb4,
  0x75, 0xed, 0xcc, 0xba, 0xdb, 0x9a, 0xd0, 0xad, 0x81, 0xbe, 0xff, 0x60,
  0xda, 0xf2, 0xf6, 0x06, 0x0a, 0x03, 0x17, 0xd1, 0xfd, 0x1a, 0x0e, 0xf8,
  0xac, 0x3a, 0xd6, 0xb8, 0xe5, 0xd4, 0x1e, 0x0d, 0x1a, 0x02, 0x18, 0x06,
  0xaf, 0xc7, 0xe6, 0x41, 0xda, 0x49, 0xda, 0xd1, 0xd5, 0x1c, 0xdc, 0x29,
  0x1d, 0x9c, 0x7f, 0x92, 0x14, 0xe2, 0x58, 0x04, 0xde, 0x24, 0xf8, 0x1b,
  0xc3, 0x0f, 0x43, 0x55, 0xca, 0x0f, 0x15, 0xd1, 0xd7, 0x99, 0x40, 0x0a,
  0x5a, 0x14, 0xdc, 0x3c, 0x89, 0x32, 0x10, 0x76, 0xcc, 0x56, 0xcc, 0x19,
  0xeb, 0xd6, 0xb0, 0x40, 0x82, 0x6f, 0x17, 0x36, 0xc2, 0xec, 0x2d, 0xdf,
  0x2d, 0xe7, 0xc4, 0xb9, 0x21, 0xcf, 0x13, 0x25, 0xe1, 0x52, 0x20, 0xb0,
  0xf3, 0x14, 0x24, 0x5e, 0xd8, 0xa6, 0x8a, 0xa9, 0xd0, 0x43, 0xdc, 0xe7,
  0xb4, 0x2d, 0xd7, 0xf6, 0x4f, 0xc9, 0x43, 0xac, 0xf6, 0xe1, 0x31, 0xb8,
  0xd4, 0x28, 0x1d, 0xb9, 0xf6, 0xbb, 0xf5, 0xed, 0xcc, 0xd5, 0x3c, 0x45,
  0xea, 0xce, 0x02, 0xde, 0xa7, 0xd3, 0xa5, 0x13, 0xc7, 0x65, 0x7f, 0xe0,
  0x01, 0xf0, 0x8b, 0x0a, 0xd2, 0x0b, 0x0b, 0xff, 0x5b, 0x0b, 0xbd, 0xa6,
  0x25, 0x51, 0x61, 0xf5, 0xf5, 0x1f, 0x36, 0x17, 0x3d, 0xc6, 0xfd, 0x0b,
  0x1b, 0x11, 0xc5, 0xed, 0xce, 0x37, 0xeb, 0xdb, 0x9b, 0x28, 0xc2, 0x46,
  0xd2, 0xc6, 0xfa, 0x1d, 0xed, 0x00, 0xae, 0x2d, 0x04, 0xd8, 0xc3, 0x2d,
  0x49, 0x36, 0x4a, 0x03, 0xb2, 0xe0, 0x1c, 0x8a, 0xe2, 0x1b, 0x70, 0x32,
  0x1e, 0x5f, 0xbd, 0x7f, 0xb0, 0x04, 0x20, 0x09, 0xf7, 0x1f, 0xd9, 0x51,
  0x54, 0xd9, 0x26, 0xc6, 0xa9, 0xaf, 0x7f, 0x36, 0x1a, 0x66, 0x1a, 0x1a,
  0x2a, 0x07, 0xcf, 0x25, 0xc1, 0xf8, 0x2c, 0x10, 0x9a, 0xd0, 0x4e, 0xf9,
  0x61, 0x01, 0xaa, 0x4f, 0xc6, 0x14, 0xd0, 0xe5, 0x13, 0xfa, 0xaf, 0x07,
  0xb5, 0x64, 0xfe, 0xfc, 0x0c, 0xd3, 0xdd, 0x37, 0xb8, 0xf2, 0x39, 0xc7,
  0x03, 0x3e, 0xcd, 0x23, 0x9e, 0x0a, 0xe0, 0x9d, 0xad, 0x07, 0x2c, 0xd2,
  0xf1, 0xe3, 0xfd, 0xb4, 0xf2, 0x31, 0x19, 0xed, 0x1b, 0xf9, 0x0b, 0xc6,
  0x09, 0x59, 0x91, 0xbc, 0xd9, 0x12, 0x05, 0x9e, 0x12, 0xa0, 0xed, 0x00,
  0xdf, 0xb6, 0xc6, 0xce, 0x3c, 0xd2, 0xf0, 0xca, 0xea, 0x10, 0xf8, 0x1e,
  0x20, 0xd8, 0xdd, 0x15, 0xd1, 0x11, 0xe6, 0x96, 0x01, 0x19, 0xc3, 0x1a,
  0x7f, 0x0b, 0x1d, 0x30, 0x6a, 0x35, 0x05, 0xc7, 0x0b, 0xc3, 0x16, 0x10,
  0x3f, 0xf8, 0x02, 0x0d, 0x06, 0xfc, 0xe3, 0xd5, 0x02, 0x12, 0xaa, 0x08,
  0x43, 0x1b, 0xf0, 0xfc, 0xc2, 0x3b, 0x0e, 0x2e, 0xbf, 0xe5, 0x5a, 0x06,
  0xc9, 0xf3, 0x11, 0x04, 0x14, 0x7f, 0xe7, 0xda, 0x32, 0x1c, 0x0a, 0xc7,
  0x0f, 0xce, 0xaf, 0xf2, 0x38, 0x0e, 0xf6, 0x44, 0xb3, 0xd9, 0x01, 0x34,
  0xef, 0xb0, 0x05, 0xde, 0xf5, 0x2f, 0xd6, 0xf3, 0x0f, 0xfb, 0xd7, 0x39,
  0xa4, 0x48, 0xfc, 0x0c, 0x00, 0xfb, 0xc9, 0xf2, 0x09, 0xfb, 0xc1, 0x48,
  0x16, 0xe1, 0x12, 0x0d, 0xaa, 0xee, 0xd6, 0xe8, 0xfe, 0xf1, 0x04, 0xb9,
  0x28, 0xd7, 0x4b, 0x01, 0xb1, 0x0e, 0xf2, 0x15, 0xe1, 0xe1, 0x9f, 0x20,
  0xc8, 0x15, 0x1b, 0xe5, 0x72, 0xee, 0x1a, 0x0f, 0xe7, 0x7b, 0x3f, 0xcf,
  0x0a, 0x2b, 0xfd, 0xb8, 0xca, 0x37, 0x19, 0xf1, 0xbe, 0x21, 0xe0, 0x2d,
  0x2c, 0x89, 0xe1, 0x41, 0x19, 0x4d, 0x41, 0x7f, 0x5b, 0x99, 0x37, 0xda,
  0x1d, 0x5f, 0x46, 0x21, 0x1a, 0x02, 0xcf, 0xb0, 0x23, 0x2f, 0x38, 0x82,
  0xd6, 0x98, 0x3b, 0x0f, 0xde, 0x20, 0x19, 0xd8, 0xfc, 0x32, 0x2e, 0x07,
  0x42, 0xcf, 0x13, 0xe4, 0xc5, 0x06, 0xe7, 0x96, 0xf6, 0x2f, 0x19, 0x07,
  0xd7, 0xc5, 0x02, 0x00, 0x81, 0xd0, 0x37, 0x48, 0xf6, 0x03, 0x20, 0x12,
  0x1e, 0xc9, 0x01, 0x3f, 0x14, 0x96, 0x05, 0x3d, 0xbb, 0xa2, 0xb6, 0xeb,
  0x2e, 0xb4, 0x0a, 0x4c, 0xe2, 0xd5, 0x31, 0xf0, 0x9c, 0x18, 0xbe, 0x51,
  0x70, 0x40, 0xd4, 0xa9, 0xe8, 0x0a, 0x17, 0x30, 0x3f, 0x13, 0x14, 0xd8,
  0x6d, 0xb9, 0x03, 0x19, 0x3a, 0x7f, 0xcf, 0x9a, 0x9f, 0x2f, 0x38, 0x1f,
  0x16, 0x29, 0xf9, 0x49, 0x2a, 0x1a, 0x5d, 0xaa, 0x24, 0x3a, 0x17, 0x44,
  0xd7, 0xe7, 0x0f, 0xd1, 0xd1, 0x0e, 0xb1, 0x04, 0x9b, 0x04, 0x9f, 0xb9,
  0xcf, 0xad, 0x17, 0xd6, 0x0f, 0xe0, 0x0b, 0xc5, 0x21, 0xe2, 0x21, 0x0b,
  0xd6, 0xda, 0x0c, 0xc7, 0x9a, 0x4f, 0x0f, 0xda, 0xf0, 0xe9, 0x21, 0xd5,
  0x08, 0x22, 0xf5, 0xe5, 0xfc, 0x05, 0xde, 0xff, 0xab, 0x81, 0x3c, 0x1c,
  0x16, 0xf4, 0x23, 0xee, 0xb8, 0xda, 0x04, 0xf8, 0xe4, 0x12, 0xed, 0xe8,
  0x02, 0xc0, 0x45, 0xa5, 0xdc, 0xcf, 0x2a, 0x14, 0x09, 0xd3, 0x18, 0xd8,
  0xc7, 0x29, 0x20, 0x27, 0xf1, 0x06, 0x03, 0xb8, 0xd0, 0x09, 0x10, 0xdc,
  0xab, 0xcc, 0x08, 0x28, 0xe8, 0xab, 0x2c, 0xcd, 0x32, 0x3d, 0xe0, 0xe7,
  0x20, 0x3d, 0xe2, 0x01, 0x54, 0xba, 0x4c, 0x26, 0x0e, 0xd0, 0xfa, 0xed,
  0xfe, 0x2c, 0xc1, 0xb8, 0xd1, 0x07, 0xd6, 0x0c, 0x29, 0xea, 0xd6, 0x2f,
  0x11, 0xce, 0x12, 0xdb, 0x34, 0xd0, 0xb5, 0x1e, 0x81, 0x00, 0x4f, 0xee,
  0xbe, 0xd1, 0xe8, 0x17, 0x02, 0x1d, 0x20, 0xb4, 0x08, 0x14, 0x10, 0xe7,
  0x30, 0x1f, 0x6c, 0x13, 0x90, 0xff, 0xf5, 0x42, 0xfb, 0x81, 0x34, 0x75,
  0x3e, 0xb0, 0x5c, 0x9a, 0x19, 0x16, 0x22, 0x00, 0xe5, 0x0a, 0xe7, 0x11,
  0xce, 0x08, 0xc9, 0xcc, 0x23, 0x23, 0xf7, 0x2c, 0x3d, 0xbc, 0xa9, 0xfb,
  0x92, 0x09, 0xd3, 0x21, 0x42, 0x14, 0x5f, 0x42, 0x3e, 0xa7, 0x0e, 0xbb,
  0x33, 0xc5, 0x23, 0xd6, 0xf0, 0x30, 0xb5, 0xd4, 0xc9, 0x52, 0x46, 0x50,
  0xa7, 0xee, 0xeb, 0xa4, 0xfd, 0xbc, 0xfa, 0x11, 0xa6, 0x19, 0x6b, 0xd8,
  0xe1, 0x3c, 0x9e, 0x81, 0xd2, 0x3c, 0x49, 0xe8, 0x34, 0xbf, 0x03, 0xd2,
  0x19, 0xff, 0x0c, 0x27, 0xe2, 0x28, 0x88, 0x05, 0x1b, 0x01, 0x47, 0xdd,
  0xf2, 0x44, 0xeb, 0x2d, 0xeb, 0x49, 0x13, 0x07, 0xbb, 0x02, 0x0a, 0x10,
  0xd9, 0xfd, 0x4a, 0x29, 0x45, 0xe4, 0xd1, 0x35, 0x1b, 0xd3, 0x05, 0x02,
  0xe4, 0x16, 0xdb, 0x04, 0x37, 0x24, 0xac, 0xec, 0xdd, 0xd9, 0x3a, 0xf1,
  0x9a, 0x2c, 0x18, 0x0c, 0xb9, 0x14, 0xc5, 0xd1, 0x33, 0x21, 0x44, 0x02,
  0x26, 0xa4, 0x36, 0x09, 0xd6, 0xd5, 0x16, 0x36, 0x1f, 0x81, 0x2f, 0xd1,
  0xe1, 0xad, 0x46, 0x0e, 0xc2, 0xc7, 0xfa, 0x00, 0xed, 0xdc, 0x11, 0xe3,
  0xed, 0x2a, 0xea, 0xc6, 0x6a, 0x0d, 0xeb, 0xb0, 0xe1, 0xc7, 0xee, 0x46,
  0xde, 0xd6, 0xde, 0x38, 0xf7, 0xf4, 0xdc, 0xc5, 0xd1, 0xfd, 0x02, 0xfe,
  0xab, 0x1a, 0x04, 0x5d, 0x17, 0xf7, 0x08, 0xb3, 0x59, 0x21, 0xf8, 0x2c,
  0x13, 0xe5, 0x1b, 0xe0, 0x2b, 0x58, 0xfe, 0xf0, 0xe2, 0x65, 0xb5, 0xe2,
  0xbc, 0xf2, 0xf5, 0x34, 0xff, 0x14, 0x27, 0xf4, 0xb4, 0xd1, 0x07, 0xf4,
  0xb7, 0x06, 0xd2, 0x42, 0x32, 0x26, 0xb6, 0x6d, 0x03, 0x15, 0xc8, 0xb2,
  0x27, 0x21, 0xfe, 0x06, 0x52, 0xf9, 0xce, 0x81, 0x1b, 0x9a, 0x3c, 0xe4,
  0xe7, 0x2c, 0x32, 0x37, 0x10, 0x10, 0xf4, 0x22, 0x7f, 0xcf, 0xf1, 0xae,
  0x5b, 0x12, 0xec, 0xee, 0xf7, 0xb7, 0xb8, 0x20, 0x5c, 0xd0, 0xd6, 0xfe,
  0x47, 0xf3, 0xd3, 0xd6, 0x04, 0x10, 0xf1, 0x62, 0xb6, 0xf2, 0xc7, 0x2b,
  0x23, 0xff, 0x0d, 0xd2, 0x0a, 0x50, 0xec, 0x10, 0x1d, 0x2a, 0xa9, 0x0a,
  0x43, 0xcc, 0xd1, 0x44, 0xe4, 0xf1, 0xf8, 0x41, 0xe4, 0xef, 0xf9, 0xd4,
  0xeb, 0xd1, 0x2e, 0x16, 0x2b, 0x52, 0xb2, 0x56, 0xee, 0x05, 0xe3, 0x4e,
  0xf4, 0x04, 0xeb, 0xfe, 0x65, 0xdd, 0xbc, 0x9c, 0x3a, 0xa9, 0xa3, 0xf1,
  0x52, 0xd4, 0xdd, 0xe9, 0xb0, 0x5f, 0xd9, 0xef, 0x2d, 0xc3, 0x98, 0x5a,
  0x55, 0xf0, 0x27, 0xa9, 0x12, 0xfb, 0x2c, 0x38, 0x49, 0xb0, 0xd3, 0xf8,
  0xff, 0x36, 0xe8, 0xdd, 0x8d, 0x81, 0xad, 0x8c, 0x3a, 0x34, 0xb9, 0x02,
  0x30, 0xb2, 0x55, 0xf6, 0x3a, 0x8f, 0xd5, 0xae, 0x52, 0x18, 0x36, 0xf4,
  0x27, 0x2d, 0x15, 0x0d, 0xc6, 0x20, 0xed, 0x02, 0x4a, 0x3d, 0x4c, 0x7f,
  0x20, 0x36, 0xd9, 0x23, 0x62, 0x06, 0x15, 0x29, 0x57, 0x3e, 0x14, 0x13,
  0xea, 0x9f, 0xc4, 0x9d, 0xe6, 0x01, 0x15, 0xce, 0x15, 0xb0, 0xd5, 0x54,
  0x66, 0xba, 0xe5, 0x0d, 0x24, 0xc1, 0xe0, 0x10, 0xd0, 0xe8, 0x37, 0x4a,
  0x17, 0xe2, 0xfa, 0xcc, 0x61, 0x0e, 0xd9, 0xfe, 0xec, 0x7d, 0x60, 0x05,
  0xd1, 0xa2, 0xab, 0xe3, 0xdb, 0xeb, 0x7b, 0xb8, 0x3c, 0xbc, 0x32, 0x1c,
  0xb3, 0xfd, 0x11, 0xfe, 0xfb, 0x17, 0x25, 0xf6, 0xe9, 0xe1, 0x2b, 0x01,
  0xd1, 0xdc, 0x4d, 0x1c, 0x1d, 0x9f, 0x15, 0x01, 0x3d, 0x06, 0x9d, 0xee,
  0x1d, 0x00, 0x25, 0xed, 0x44, 0xd4, 0x81, 0xd0, 0xe0, 0x93, 0xe8, 0x27,
  0x85, 0x2c, 0xce, 0xff, 0xd4, 0xd9, 0xf2, 0x11, 0xd6, 0xfb, 0x2e, 0xbd,
  0xb3, 0x00, 0x14, 0xe1, 0xb7, 0x03, 0xab, 0xa2, 0xcf, 0xbd, 0x4a, 0xf7,
  0x67, 0x07, 0xe0, 0x48, 0x5d, 0x1c, 0x30, 0xa4, 0xef, 0xc2, 0x8c, 0xad,
  0xf2, 0x58, 0xd5, 0x65, 0x82, 0x1e, 0xb5, 0x51, 0x52, 0x03, 0x37, 0x1d,
  0xaf, 0x48, 0xc9, 0x3e, 0xe0, 0x03, 0x03, 0xc5, 0xc4, 0xca, 0xea, 0x25,
  0xec, 0x1f, 0xc3, 0x08, 0xc1, 0x91, 0x81, 0xb0, 0x15, 0x53, 0xde, 0xe2,
  0xda, 0x78, 0x4b, 0xe3, 0xe9, 0x19, 0xdb, 0xa3, 0x45, 0xbb, 0x7a, 0xc0,
  0xf4, 0xfd, 0xfc, 0x2d, 0x10, 0x15, 0x46, 0xc5, 0x22, 0x39, 0xc0, 0xb0,
  0xd1, 0x2e, 0xd6, 0x81, 0x08, 0x3d, 0xd2, 0x20, 0xce, 0xf0, 0x0b, 0xec,
  0x28, 0xf0, 0x13, 0xf3, 0xe0, 0x2b, 0x40, 0x08, 0x13, 0x02, 0x00, 0x69,
  0xdd, 0xf0, 0xdd, 0xe5, 0xd9, 0x00, 0x11, 0xfb, 0x15, 0x32, 0xc6, 0x01,
  0xe4, 0xf1, 0xf9, 0x04, 0x00, 0xc1, 0xee, 0x0f, 0xe9, 0x0a, 0x11, 0xed,
  0xfd, 0xec, 0x2d, 0x25, 0xc7, 0x30, 0xed, 0x18, 0xf6, 0xd0, 0x04, 0xd1,
  0xb8, 0x08, 0xdb, 0x02, 0x20, 0x54, 0xc0, 0xb6, 0x24, 0x27, 0x29, 0x36,
  0x22, 0xc1, 0x38, 0xa7, 0x30, 0x24, 0x00, 0xe7, 0xfa, 0x53, 0x1e, 0xf9,
  0xbd, 0xd8, 0xf9, 0x81, 0xd2, 0xed, 0x37, 0xd2, 0xc8, 0x18, 0x24, 0xda,
  0xe3, 0x11, 0xe8, 0xfa, 0xfe, 0x03, 0xf5, 0x00, 0x0b, 0xc6, 0x25, 0xd5,
  0xaa, 0x0f, 0xd8, 0x30, 0xa1, 0x19, 0x26, 0xb3, 0x77, 0xe4, 0x0a, 0x17,
  0x2b, 0xbf, 0xec, 0xfa, 0xff, 0xfa, 0x13, 0x9b, 0x3a, 0xf4, 0xe8, 0xb2,
  0x18, 0xbf, 0x1e, 0x31, 0xa6, 0x24, 0xff, 0x65, 0xfe, 0x2b, 0x14, 0xdd,
  0xff, 0xbe, 0x46, 0xfd, 0x11, 0x27, 0x3d, 0x06, 0xdc, 0x2e, 0x33, 0xdc,
  0x81, 0xfc, 0xe6, 0x36, 0xa0, 0xe6, 0xfa, 0xc2, 0xc6, 0xba, 0x28, 0xfa,
  0x4e, 0xba, 0xc7, 0x0f, 0xd4, 0xe6, 0x95, 0xc2, 0x21, 0xd5, 0xfa, 0xeb,
  0x2f, 0xfc, 0x1f, 0xc0, 0xe1, 0xf8, 0xdc, 0x38, 0xf9, 0xce, 0x81, 0xf3,
  0x0d, 0x54, 0x4d, 0x07, 0xce, 0xdf, 0x0a, 0xf4, 0x39, 0xb0, 0xec, 0x01,
  0xd6, 0xee, 0x6a, 0xe2, 0xc5, 0xfc, 0x45, 0x33, 0xce, 0xda, 0x2e, 0xdb,
  0xc8, 0x0c, 0xf1, 0xd3, 0x3f, 0xe0, 0x36, 0x16, 0xec, 0x0d, 0x37, 0x36,
  0xb7, 0xc2, 0xc9, 0x4e, 0xef, 0x51, 0xcd, 0x14, 0x8d, 0xbd, 0xcc, 0x12,
  0xc2, 0x2e, 0xb9, 0xa9, 0x37, 0x30, 0x65, 0xe7, 0xf8, 0xf7, 0xf6, 0x50,
  0xf1, 0x3d, 0xc2, 0xd7, 0xe0, 0xc5, 0xe5, 0xfc, 0x81, 0x19, 0x29, 0x27,
  0x0a, 0xa0, 0x9b, 0xef, 0xce, 0xe9, 0xe0, 0xc1, 0xd5, 0xfb, 0x6c, 0x12,
  0x28, 0x15, 0xf3, 0x0e, 0xd6, 0xef, 0xff, 0xb7, 0xbf, 0xfb, 0xcd, 0xfc,
  0x09, 0xcd, 0xbc, 0x7c, 0xf6, 0xbf, 0xee, 0x4f, 0xbe, 0xcb, 0xf5, 0x6b,
  0x9e, 0xab, 0xea, 0x42, 0x8c, 0xe6, 0x43, 0xfd, 0x00, 0x00, 0x00, 0x00,
  0xce, 0xbe, 0xff, 0xff, 0x04, 0x00, 0x00, 0x00, 0x00, 0x10, 0x00, 0x00,
  0x10, 0xac, 0xf9, 0xc9, 0x31, 0xe3, 0x1d, 0x06, 0x1c, 0x3d, 0xbb, 0xf0,
  0x1a, 0xd6, 0x24, 0xc7, 0xd4, 0xec, 0x2a, 0xda, 0x21, 0xd3, 0xec, 0xf5,
  0xde, 0x09, 0xd4, 0x15, 0xca, 0x16, 0x81, 0xda, 0x41, 0x30, 0xe6, 0x00,
  0x4a, 0xd8, 0x08, 0xc6, 0xe6, 0xeb, 0xee, 0xd9, 0xc2, 0xf8, 0xf1, 0x1e,
  0x05, 0x10, 0xa8, 0x2e, 0xfa, 0xea, 0x2a, 0xab, 0xeb, 0x9c, 0x2f, 0xdd,
  0x1b, 0x05, 0xdf, 0x0c, 0x0e, 0x2d, 0xf2, 0xfc, 0xf0, 0x19, 0x13, 0xe2,
  0xb1, 0x00, 0xda, 0x2d, 0xd6, 0x14, 0xe7, 0xd5, 0x05, 0x48, 0xef, 0xb9,
  0xfe, 0xe4, 0x19, 0xb6, 0xff, 0xdb, 0xcf, 0xfa, 0xff, 0x0b, 0xe0, 0xbe,
  0x22, 0xf8, 0x95, 0x28, 0x42, 0x14, 0x48, 0xc4, 0xde, 0x06, 0xf0, 0x4b,
  0x23, 0xf1, 0x36, 0xac, 0xf5, 0xc2, 0xd8, 0xec, 0xed, 0xc5, 0xca, 0x46,
  0xcd, 0x23, 0x36, 0xfb, 0x7f, 0xfe, 0x4b, 0x5e, 0x30, 0x13, 0x20, 0x0f,
  0x16, 0xff, 0xf2, 0x7f, 0xf1, 0x2e, 0x13, 0x54, 0x2c, 0xb7, 0x16, 0x27,
  0xd8, 0xfe, 0x23, 0x25, 0x0e, 0xd5, 0x05, 0xb2, 0xe2, 0x24, 0xf2, 0x40,
  0xea, 0x2a, 0x1a, 0x2e, 0xe8, 0xeb, 0xdb, 0xf1, 0xf4, 0xbf, 0xc9, 0xe2,
  0xcc, 0xd1, 0x02, 0xb7, 0xa9, 0xe6, 0xf2, 0xf2, 0x0b, 0xc6, 0x9f, 0xd0,
  0xbb, 0x24, 0xf3, 0xf9, 0x09, 0xe5, 0x2f, 0x01, 0xdf, 0x12, 0xd3, 0xfb,
  0xf3, 0xb2, 0xe5, 0xb4, 0xd7, 0x12, 0x41, 0x10, 0x14, 0xde, 0x12, 0xaa,
  0xf0, 0x0d, 0xd1, 0xdf, 0xfd, 0x19, 0xba, 0xf1, 0x54, 0x28, 0xa1, 0x3b,
  0xeb, 0x0a, 0xdb, 0x18, 0x44, 0xe8, 0x28, 0xf4, 0x2f, 0x25, 0x9c, 0xda,
  0x81, 0xc5, 0x13, 0xdc, 0xc8, 0xae, 0xd6, 0x29, 0x02, 0xb3, 0xd8, 0x99,
  0x09, 0x26, 0xd7, 0xb6, 0x90, 0x0a, 0xef, 0x27, 0x24, 0x0e, 0x8c, 0x43,
  0x1d, 0xbd, 0x37, 0xfc, 0x42, 0xfd, 0x4a, 0x1d, 0x05, 0x24, 0x37, 0x3c,
  0xdf, 0x1c, 0x1e, 0xea, 0x64, 0x08, 0x0a, 0x0c, 0x40, 0x2f, 0xcb, 0x20,
  0xed, 0xd2, 0xeb, 0xf1, 0xd9, 0x03, 0xcc, 0xeb, 0x3d, 0x1d, 0x17, 0x19,
  0xfb, 0xdc, 0xf0, 0xc8, 0x76, 0x74, 0xbb, 0xf5, 0xec, 0x02, 0xcf, 0xe0,
  0x3b, 0x18, 0xd8, 0xf0, 0xfa, 0x30, 0xca, 0x1d, 0xf6, 0x3c, 0xe5, 0x30,
  0x7f, 0x50, 0x5a, 0xdc, 0x08, 0xd4, 0x20, 0x0b, 0x87, 0x26, 0xbc, 0xfc,
  0xd9, 0x11, 0xa9, 0xd2, 0x0d, 0x28, 0x4a, 0xd7, 0xf5, 0x0a, 0x48, 0x04,
  0x06, 0xc1, 0xeb, 0xbc, 0x78, 0xd2, 0xd3, 0xf7, 0x0d, 0xfd, 0xa3, 0x7f,
  0xdc, 0x1d, 0xf1, 0x3d, 0xf8, 0xfa, 0xf8, 0xfa, 0xa9, 0xb8, 0x34, 0x09,
  0x30, 0x3a, 0x9b, 0xa1, 0xe9, 0x2f, 0x0b, 0x2e, 0xdd, 0x60, 0x00, 0x0c,
  0x28, 0xb7, 0xf1, 0x24, 0xbd, 0x9c, 0xb9, 0x24, 0xd9, 0x1a, 0x24, 0x59,
  0xd0, 0x5a, 0xe7, 0x7d, 0xa5, 0xba, 0xf9, 0xe4, 0x6d, 0xdf, 0xe1, 0xc8,
  0x81, 0xdc, 0xc1, 0xc4, 0x14, 0xec, 0x4f, 0x03, 0x78, 0x28, 0x04, 0x23,
  0x1b, 0x66, 0x08, 0x32, 0x2b, 0x27, 0x1e, 0x02, 0xc9, 0xd5, 0x1c, 0x63,
  0xb0, 0xae, 0x4c, 0xc8, 0xb0, 0x0a, 0x93, 0x13, 0xbd, 0xd2, 0x25, 0x7b,
  0x0a, 0xc3, 0x67, 0xfb, 0x0a, 0xa7, 0x33, 0x5f, 0x4f, 0xcc, 0xf3, 0x3c,
  0x33, 0x47, 0xa8, 0x15, 0x07, 0x13, 0xf2, 0xcf, 0xeb, 0x9f, 0x13, 0x1c,
  0xf0, 0x33, 0xc7, 0xd2, 0xbd, 0xdf, 0xfe, 0xbf, 0x69, 0xce, 0xd7, 0xef,
  0x31, 0x0a, 0x45, 0xcd, 0x01, 0xea, 0x47, 0xa3, 0x17, 0x81, 0x32, 0xf0,
  0x23, 0xfc, 0xb0, 0x20, 0xd5, 0x3f, 0x12, 0x20, 0x03, 0x0b, 0xd5, 0xf9,
  0x20, 0x1f, 0x1d, 0x04, 0x0c, 0x2b, 0x0c, 0xd0, 0x00, 0xcd, 0xf8, 0xfd,
  0xb1, 0x0b, 0x3d, 0x0d, 0x14, 0x03, 0x60, 0x49, 0x4c, 0xba, 0xf9, 0xc8,
  0x0a, 0x1b, 0x5c, 0xbe, 0x17, 0x20, 0x28, 0xfb, 0xac, 0xfc, 0x26, 0xfe,
  0xb2, 0x30, 0xe9, 0x4e, 0x05, 0x2f, 0x2b, 0xd0, 0x27, 0x0e, 0xd5, 0x7f,
  0x1b, 0x14, 0xb5, 0xd8, 0x35, 0x1a, 0x2b, 0x2e, 0xe9, 0xe2, 0x3c, 0x27,
  0xfc, 0x38, 0xf0, 0xcd, 0xeb, 0xd9, 0x06, 0x48, 0xe2, 0x0e, 0xba, 0x35,
  0xf7, 0x2f, 0x19, 0xd2, 0xc2, 0xf9, 0xf5, 0xeb, 0x9d, 0xdd, 0xe7, 0x88,
  0x60, 0x28, 0xbd, 0xd0, 0xed, 0x81, 0x41, 0xd3, 0x00, 0xdc, 0xe0, 0xda,
  0xeb, 0xbf, 0x13, 0xe4, 0xf4, 0x2b, 0xb9, 0xfb, 0x38, 0x40, 0x21, 0x9e,
  0x99, 0xc9, 0x29, 0x7a, 0xf2, 0x90, 0x1d, 0xa6, 0xcf, 0xeb, 0x42, 0xe2,
  0xa6, 0x3a, 0xea, 0x38, 0xeb, 0x1c, 0xce, 0xbf, 0x27, 0x1e, 0x65, 0x15,
  0xf5, 0xe9, 0xf5, 0x12, 0x32, 0x04, 0xe7, 0xc8, 0xbd, 0x1f, 0xf4, 0x6d,
  0x09, 0xe1, 0xd1, 0xe4, 0x0a, 0x31, 0xe4, 0xe6, 0xe9, 0x00, 0x24, 0x31,
  0x0c, 0x42, 0x81, 0xfe, 0xf0, 0x08, 0xd8, 0xce, 0x10, 0xf8, 0x3d, 0x4a,
  0x14, 0x14, 0xe9, 0x0b, 0x33, 0xdd, 0xdd, 0x01, 0x14, 0xf2, 0x0d, 0xab,
  0xf1, 0xfd, 0xf9, 0xf1, 0x34, 0x05, 0x12, 0xeb, 0xcf, 0x07, 0x1d, 0x63,
  0xde, 0x24, 0x21, 0xcf, 0xae, 0xfb, 0x15, 0xc3, 0xdd, 0xe4, 0x41, 0xdf,
  0x02, 0x1c, 0x1b, 0xf9, 0xc4, 0x10, 0x37, 0x17, 0x0c, 0x3d, 0x20, 0xbd,
  0x22, 0x0c, 0x1c, 0x16, 0xca, 0x21, 0xc6, 0x37, 0x08, 0xf6, 0xb6, 0x02,
  0xb3, 0x0f, 0x77, 0x65, 0xdd, 0x81, 0xd4, 0xf5, 0xee, 0x23, 0x31, 0x1d,
  0x9e, 0x63, 0x00, 0x3e, 0x58, 0xaf, 0x5d, 0xec, 0x21, 0xcc, 0x02, 0x06,
  0x37, 0xd1, 0x16, 0xe4, 0xf0, 0x13, 0xff, 0xd0, 0x47, 0x31, 0xef, 0xd5,
  0xf1, 0x00, 0xf4, 0xf2, 0xeb, 0xf9, 0xcc, 0x14, 0x4f, 0xde, 0xca, 0x0e,
  0x1c, 0x11, 0xeb, 0x4d, 0x0d, 0xd5, 0x20, 0x18, 0x00, 0xf6, 0xdc, 0xe2,
  0xd5, 0x03, 0x1f, 0x0d, 0x12, 0xff, 0x3c, 0xfd, 0x23, 0xec, 0x18, 0x12,
  0xaf, 0x08, 0xfa, 0xe4, 0xaf, 0xcd, 0x17, 0xf9, 0xe1, 0x3f, 0xf9, 0xf6,
  0x2a, 0xb6, 0xf8, 0xef, 0xd7, 0xf4, 0xc0, 0xe7, 0xf3, 0x24, 0xc6, 0x0f,
  0xfd, 0xfe, 0xd9, 0xc8, 0xce, 0xce, 0xd9, 0x02, 0x7f, 0xef, 0xba, 0xe6,
  0x05, 0x17, 0xff, 0xe0, 0xcb, 0x0e, 0xde, 0x54, 0x1b, 0xf1, 0xcc, 0xe3,
  0x16, 0x81, 0xc6, 0xdb, 0x1a, 0x1f, 0x13, 0xc3, 0x19, 0xea, 0xcd, 0x9e,
  0x35, 0x41, 0xce, 0x22, 0x0d, 0x13, 0x4c, 0xef, 0xce, 0x38, 0x3d, 0x09,
  0xb3, 0xca, 0x10, 0xed, 0xf5, 0xf7, 0x17, 0xf3, 0xda, 0xf5, 0xcc, 0x11,
  0xef, 0xaa, 0x07, 0xf0, 0xf2, 0x2a, 0xbc, 0xdc, 0x0c, 0xd8, 0xcc, 0x29,
  0x17, 0xfb, 0x31, 0xf1, 0xdf, 0xfb, 0xf3, 0xcb, 0xe0, 0xdf, 0x0f, 0xd4,
  0xbe, 0xfd, 0xa9, 0xed, 0xf6, 0x3f, 0xfd, 0xb9, 0x41, 0xf0, 0x0d, 0xdf,
  0xfe, 0x34, 0xec, 0xe0, 0x1f, 0x20, 0xbc, 0xbd, 0xfa, 0x3e, 0x81, 0x13,
  0xea, 0x0b, 0x2e, 0x10, 0x12, 0xfd, 0xda, 0x3f, 0xaf, 0x33, 0xb3, 0xd2,
  0x1e, 0xb1, 0x20, 0x25, 0xf0, 0x01, 0xf2, 0xfb, 0xd8, 0x1f, 0x0d, 0x0a,
  0x38, 0xd1, 0xa1, 0x0b, 0x18, 0x5c, 0x60, 0x01, 0xf0, 0x17, 0x03, 0xb0,
  0xf9, 0x74, 0xe8, 0x3d, 0xc9, 0xd6, 0x9e, 0xd0, 0x18, 0x3f, 0x03, 0xf3,
  0x0f, 0x23, 0x17, 0x14, 0xdc, 0x12, 0xe5, 0x84, 0xf1, 0xb3, 0xa0, 0x24,
  0x3f, 0x58, 0x90, 0x2a, 0xd0, 0xb8, 0x1a, 0x52, 0xcf, 0x03, 0x52, 0x61,
  0xe6, 0x2d, 0xa8, 0x37, 0x02, 0xdb, 0x46, 0x57, 0x09, 0xd5, 0x4f, 0x71,
  0xff, 0x57, 0x75, 0x95, 0xc1, 0x45, 0x36, 0x54, 0x01, 0xbc, 0x70, 0x49,
  0x81, 0x17, 0xda, 0x8f, 0xf3, 0x3b, 0x20, 0x16, 0xe9, 0x49, 0xca, 0xe5,
  0xc3, 0x4b, 0x35, 0x2f, 0x1b, 0x13, 0x81, 0x12, 0x46, 0xd0, 0xe7, 0x07,
  0xe0, 0xa8, 0xfd, 0xe7, 0x3a, 0xa5, 0x4c, 0x28, 0xdc, 0x20, 0x0b, 0x23,
  0xed, 0x12, 0xdd, 0x41, 0xd0, 0x81, 0x33, 0xb0, 0xc7, 0x1a, 0xe4, 0xff,
  0x9a, 0xf9, 0xb5, 0x22, 0x34, 0x29, 0x12, 0xdb, 0x1f, 0xc9, 0x17, 0xf8,
  0x08, 0xc6, 0x23, 0x04, 0xdc, 0xe5, 0x3b, 0xbd, 0x11, 0xd0, 0xe2, 0x01,
  0xfd, 0xde, 0x26, 0x02, 0xf0, 0x35, 0xfd, 0xf6, 0x15, 0xe1, 0x1c, 0xe1,
  0x21, 0x7d, 0xf3, 0x04, 0xe2, 0xe2, 0x21, 0x19, 0x05, 0x0d, 0x12, 0x35,
  0x17, 0xc1, 0xb5, 0xd0, 0x12, 0x2a, 0x27, 0xfd, 0xd7, 0xc0, 0xe0, 0xe7,
  0xfc, 0xad, 0x2a, 0x31, 0xb4, 0x0c, 0x81, 0x0c, 0x37, 0xf7, 0x2b, 0xdd,
  0x50, 0x63, 0x0a, 0xa6, 0xee, 0x35, 0x27, 0x1e, 0xf9, 0xfd, 0x05, 0x8f,
  0xca, 0xfe, 0x19, 0xe9, 0xcc, 0xa8, 0x20, 0x06, 0x22, 0x19, 0x1e, 0x32,
  0xf3, 0x42, 0x0b, 0x10, 0xf6, 0x00, 0x43, 0x0a, 0xf6, 0xe4, 0xda, 0x1b,
  0xf8, 0xc0, 0x1e, 0xd1, 0xf6, 0x1c, 0x3e, 0x28, 0xe4, 0x46, 0xea, 0x18,
  0xf4, 0x51, 0x14, 0xe3, 0x0d, 0xdd, 0xbb, 0x37, 0x1b, 0x7f, 0x43, 0xe9,
  0x0b, 0xf3, 0xe8, 0xf3, 0xef, 0x34, 0xd7, 0xe5, 0xf6, 0x0b, 0xe5, 0xf2,
  0xe6, 0x18, 0x2e, 0xc3, 0xe9, 0xc0, 0xf4, 0xd2, 0xf6, 0x0e, 0xf9, 0x0f,
  0x17, 0xd8, 0x13, 0x2e, 0xc1, 0xe3, 0x13, 0x3a, 0xee, 0xe3, 0xd0, 0xe6,
  0x17, 0x12, 0xdd, 0x11, 0x44, 0xc3, 0x01, 0xf6, 0x22, 0x08, 0xeb, 0xbb,
  0xc6, 0x55, 0xe0, 0x26, 0xbd, 0x31, 0xe6, 0xc9, 0xd0, 0xce, 0x0d, 0xcb,
  0x7f, 0x00, 0xf9, 0x00, 0x3d, 0xb2, 0xfa, 0x25, 0x37, 0xe9, 0x39, 0x61,
  0xff, 0x13, 0x21, 0xf8, 0x08, 0xe3, 0x75, 0x06, 0x40, 0x42, 0xe5, 0xe7,
  0x24, 0x4c, 0xf2, 0xbc, 0x31, 0xc4, 0xce, 0xc4, 0xef, 0x0b, 0xeb, 0xe6,
  0xb7, 0xdd, 0x97, 0xf1, 0xbc, 0xe0, 0x26, 0xcb, 0x3c, 0x81, 0x3a, 0x4a,
  0x5f, 0xd0, 0xea, 0xf4, 0xdb, 0x62, 0x5c, 0x09, 0x79, 0x18, 0x19, 0xf1,
  0xd0, 0x0f, 0xe7, 0x54, 0xf4, 0xd5, 0x4f, 0xeb, 0xa3, 0x01, 0x2e, 0xc7,
  0xc7, 0x2d, 0x26, 0x02, 0x16, 0x14, 0x4c, 0xe4, 0x30, 0x71, 0xdf, 0x09,
  0xd7, 0xbf, 0x0d, 0x07, 0x20, 0x22, 0x17, 0xeb, 0x00, 0xdb, 0xe9, 0x31,
  0x35, 0x3a, 0x81, 0x07, 0x1d, 0xcf, 0xb9, 0x3a, 0xd3, 0x14, 0xd3, 0xe6,
  0xe5, 0xd6, 0xe1, 0xe5, 0x3c, 0xeb, 0xd0, 0xf3, 0xe4, 0xc1, 0x2d, 0x37,
  0xd3, 0x28, 0x16, 0x3a, 0xe0, 0x3a, 0xd7, 0xff, 0x14, 0xdd, 0x0f, 0xb5,
  0xf5, 0x46, 0x03, 0x28, 0x00, 0x0d, 0xc7, 0xdf, 0xd3, 0xea, 0x46, 0xf9,
  0x2e, 0xc5, 0x5a, 0x33, 0x4d, 0x35, 0xfd, 0xdd, 0x18, 0x68, 0xd3, 0x47,
  0x2b, 0xec, 0x17, 0x15, 0xf8, 0x5d, 0x10, 0xc6, 0x48, 0x13, 0x81, 0xeb,
  0x32, 0x1f, 0x13, 0x65, 0xd1, 0x4e, 0x1e, 0xfd, 0x59, 0x2f, 0xdf, 0x0b,
  0xcc, 0xd1, 0x02, 0x23, 0x53, 0xc4, 0x0c, 0xda, 0xe3, 0x74, 0x62, 0xda,
  0xda, 0xd5, 0xfb, 0x89, 0xe1, 0xf7, 0x6a, 0xc9, 0x0d, 0x3b, 0x94, 0xab,
  0x0e, 0x50, 0x13, 0xe7, 0x0a, 0x0b, 0xcc, 0x2d, 0xeb, 0x45, 0x24, 0xef,
  0xe8, 0x12, 0x28, 0xd0, 0x07, 0xff, 0xcb, 0x0a, 0xd8, 0x3e, 0xd3, 0xc9,
  0x2c, 0xc8, 0x8f, 0xef, 0xab, 0x3c, 0xd2, 0x42, 0x44, 0xea, 0x3f, 0x3d,
  0xcd, 0x2b, 0xef, 0x0f, 0x7f, 0xfc, 0x3a, 0xee, 0x30, 0x04, 0xf9, 0xda,
  0xf9, 0xd6, 0xde, 0x26, 0x17, 0x42, 0xb8, 0x08, 0x74, 0x15, 0x91, 0x65,
  0xfe, 0x1a, 0x29, 0x30, 0x34, 0xe7, 0x73, 0x51, 0xa8, 0xad, 0x1d, 0xb7,
  0x57, 0x20, 0xd0, 0x9b, 0xef, 0x2d, 0xd6, 0x24, 0xbe, 0x56, 0xd7, 0x58,
  0xbb, 0xa3, 0xad, 0x46, 0x39, 0x32, 0xb5, 0xd2, 0x93, 0xb5, 0xf1, 0x22,
  0x13, 0x0a, 0x4c, 0xce, 0xa3, 0x1e, 0x15, 0xff, 0x1a, 0xda, 0x5e, 0x04,
  0x2e, 0xf7, 0x2a, 0x2d, 0xf7, 0xe6, 0xcf, 0x39, 0x03, 0xea, 0xb0, 0x22,
  0xf8, 0xf8, 0xe6, 0xe9, 0x7f, 0x35, 0x1f, 0x2e, 0x54, 0xdc, 0x4b, 0xb2,
  0xfb, 0xc3, 0xbe, 0xd5, 0xef, 0xfe, 0x42, 0xeb, 0x28, 0x75, 0x51, 0x1a,
  0xe3, 0xc0, 0x01, 0xd3, 0x21, 0x11, 0xa6, 0xbf, 0x34, 0x63, 0xeb, 0x10,
  0xc5, 0x0f, 0x42, 0x1f, 0x9a, 0xe7, 0x29, 0x35, 0xed, 0xf7, 0x28, 0x19,
  0xe3, 0x6e, 0x47, 0x81, 0xf0, 0x26, 0x74, 0x21, 0x2c, 0xda, 0xff, 0x01,
  0xe0, 0x33, 0x92, 0xe6, 0x63, 0x5f, 0x05, 0x5f, 0x79, 0x0e, 0x86, 0xdf,
  0x15, 0xd7, 0x22, 0x20, 0xd4, 0xff, 0xbb, 0x27, 0x07, 0xce, 0xf9, 0x54,
  0x81, 0x35, 0x16, 0x08, 0xf3, 0xc9, 0x25, 0x1a, 0xd0, 0xf4, 0x12, 0x32,
  0xe3, 0x1c, 0xaa, 0xbe, 0x5b, 0xe5, 0xdf, 0xdb, 0xdb, 0x15, 0x5b, 0x47,
  0xf3, 0x01, 0xfe, 0xf5, 0xc2, 0x1a, 0xd1, 0x3d, 0xbe, 0x0c, 0xb5, 0x03,
  0x29, 0x11, 0x9b, 0xe1, 0x39, 0xdd, 0xf8, 0xd4, 0x12, 0xe4, 0xac, 0x3e,
  0x64, 0xbf, 0xed, 0x46, 0x0f, 0xf8, 0x27, 0x08, 0x0c, 0xd3, 0x97, 0xe6,
  0xd8, 0xfd, 0x0f, 0x29, 0x14, 0x01, 0x05, 0x1b, 0x2c, 0xef, 0x4b, 0xce,
  0x42, 0xcc, 0xda, 0xe0, 0xfa, 0x20, 0xe4, 0x68, 0x10, 0xcb, 0x22, 0x04,
  0x21, 0x55, 0x1d, 0x2f, 0x3c, 0x98, 0x81, 0xcb, 0xfd, 0xc0, 0x21, 0x1b,
  0xe1, 0xab, 0x43, 0x35, 0xff, 0xf6, 0x1f, 0xfd, 0xdc, 0xd7, 0xd2, 0xde,
  0x4e, 0xcf, 0x41, 0xd3, 0xb5, 0x15, 0xa3, 0xeb, 0xf1, 0x56, 0xaf, 0x9c,
  0xbf, 0x9b, 0xbe, 0x19, 0x20, 0xbd, 0x37, 0xee, 0xf5, 0x0e, 0x11, 0xd3,
  0xe3, 0xe2, 0xe3, 0x0c, 0xbc, 0x18, 0x34, 0x1b, 0xd1, 0x13, 0x44, 0xf2,
  0x3f, 0xef, 0xf5, 0xb3, 0xe0, 0xc6, 0x38, 0xd7, 0xc8, 0xc7, 0x0e, 0x0c,
  0xf3, 0x22, 0xc8, 0x14, 0x4f, 0x21, 0xe2, 0xd0, 0xaa, 0xb2, 0x75, 0xfd,
  0x27, 0xe6, 0xf0, 0xba, 0x0e, 0x81, 0xeb, 0x2b, 0xc7, 0xbe, 0x4b, 0x56,
  0x05, 0x27, 0xf2, 0xff, 0xf9, 0xc3, 0xe8, 0x07, 0x25, 0xed, 0xbb, 0xc7,
  0xa9, 0x22, 0xcf, 0xc1, 0x25, 0xe6, 0x49, 0x68, 0xf3, 0x34, 0xda, 0x23,
  0x9d, 0x42, 0x11, 0xe4, 0xf9, 0x04, 0xe5, 0x40, 0x0b, 0x94, 0x08, 0x06,
  0xfa, 0x5d, 0xc9, 0xfc, 0x96, 0x0b, 0x26, 0xe5, 0xe1, 0x06, 0x10, 0xec,
  0x93, 0xe4, 0x4d, 0x5b, 0xc8, 0x23, 0x04, 0x3c, 0x81, 0xa7, 0xdf, 0x53,
  0x29, 0x40, 0xed, 0xed, 0xce, 0xf3, 0xbd, 0x51, 0xc5, 0xe1, 0xd5, 0xdd,
  0xf8, 0xbc, 0xbc, 0x17, 0xc1, 0x01, 0x6f, 0xe7, 0x42, 0xa0, 0xe3, 0x2b,
  0xcc, 0xe8, 0x30, 0x33, 0xed, 0x06, 0x28, 0xc6, 0x10, 0x04, 0x62, 0xb2,
  0x24, 0xe5, 0x06, 0x28, 0x37, 0x2a, 0x9b, 0x7f, 0xd4, 0xca, 0xdd, 0xe2,
  0xc7, 0x18, 0x16, 0xd5, 0xcb, 0x5c, 0x8a, 0x1e, 0xea, 0x1c, 0xbc, 0xd5,
  0x25, 0x46, 0x15, 0x1e, 0x01, 0x37, 0x4d, 0xdd, 0xab, 0xe2, 0xf3, 0xd2,
  0xf8, 0x8c, 0x98, 0x38, 0x1e, 0xf2, 0x0d, 0x1a, 0xe8, 0x0f, 0x38, 0xc5,
  0x08, 0xfd, 0x81, 0x96, 0x18, 0xad, 0xfc, 0xd7, 0x1f, 0xd8, 0x06, 0xed,
  0x35, 0xcc, 0xfe, 0x4f, 0xd5, 0xf9, 0xdc, 0x06, 0x0f, 0x53, 0x3d, 0x18,
  0x00, 0xaf, 0xd2, 0x17, 0x48, 0xb9, 0x05, 0xd6, 0x5e, 0xf9, 0x49, 0xf9,
  0xcd, 0x02, 0x2d, 0xc1, 0x1b, 0x23, 0xf4, 0x45, 0xee, 0x0d, 0x19, 0x00,
  0xe1, 0x24, 0x1d, 0xcd, 0x23, 0x3f, 0x27, 0x21, 0x33, 0x02, 0x35, 0x3c,
  0x0c, 0x4b, 0x35, 0x50, 0x7f, 0xb1, 0xed, 0xd8, 0xe7, 0x09, 0x32, 0xd0,
  0x5c, 0x1f, 0xe2, 0x1b, 0xac, 0x22, 0xea, 0x3b, 0xc1, 0xfe, 0xd4, 0xf7,
  0xd6, 0x15, 0x17, 0x05, 0x35, 0x46, 0x08, 0xf4, 0x1d, 0xed, 0xe1, 0x4c,
  0xd6, 0xe0, 0x78, 0x15, 0xd2, 0xe1, 0x84, 0xc7, 0xea, 0x24, 0xc9, 0x47,
  0xf5, 0x11, 0xd3, 0x18, 0x23, 0x24, 0x2c, 0xde, 0x24, 0x0b, 0x13, 0xd6,
  0x02, 0xc3, 0x00, 0xd8, 0xe8, 0x7f, 0x2a, 0xde, 0x3f, 0x1d, 0x26, 0xa8,
  0x2b, 0x1f, 0xc9, 0x2e, 0x14, 0x99, 0x13, 0x2a, 0xe1, 0x11, 0xb2, 0xc5,
  0xb8, 0x02, 0xbd, 0xbf, 0xb2, 0x62, 0xeb, 0x3d, 0xef, 0x3f, 0xe2, 0x1a,
  0xe6, 0xb2, 0x47, 0x17, 0xf7, 0xe4, 0xeb, 0x00, 0xbe, 0x1c, 0xba, 0xb8,
  0xa4, 0x25, 0x10, 0x2f, 0x2c, 0x28, 0xbd, 0xdb, 0xed, 0x44, 0x36, 0x32,
  0xe9, 0x15, 0x6f, 0xe9, 0x1a, 0xdf, 0x3a, 0xb2, 0x07, 0x0d, 0xef, 0x25,
  0x38, 0x18, 0x00, 0xc7, 0xdb, 0x56, 0xdf, 0x05, 0x16, 0xbb, 0xc9, 0x54,
  0x23, 0xb9, 0xdd, 0xe9, 0xbb, 0x2d, 0xee, 0x02, 0x09, 0xac, 0xea, 0x0d,
  0x53, 0xe8, 0x83, 0x81, 0xd6, 0x42, 0xf1, 0xde, 0xe5, 0x3c, 0x10, 0xb5,
  0x0f, 0x58, 0xe4, 0x12, 0x47, 0x03, 0x03, 0xfa, 0xb1, 0xfb, 0xc0, 0x24,
  0x13, 0xe2, 0x45, 0xa7, 0x33, 0xd4, 0x0c, 0xd2, 0x2d, 0xf9, 0xe7, 0xf4,
  0xeb, 0xd1, 0xb0, 0x1b, 0x96, 0x6e, 0xa5, 0x02, 0x3b, 0xe2, 0xb5, 0xb2,
  0xf1, 0xce, 0x4f, 0x81, 0x24, 0x35, 0xca, 0xe6, 0xae, 0x17, 0x24, 0x15,
  0xe3, 0x51, 0xf9, 0x31, 0xa0, 0x1d, 0x21, 0x55, 0xe3, 0xf2, 0xbd, 0xbd,
  0x19, 0x13, 0x11, 0x41, 0x98, 0x2c, 0xe8, 0x68, 0x2f, 0xd7, 0x23, 0xe2,
  0x31, 0xc9, 0xfe, 0xc7, 0xbd, 0xba, 0xe1, 0xdf, 0x1e, 0xab, 0x09, 0x22,
  0xe1, 0x00, 0xf4, 0xe0, 0xb1, 0xe8, 0xdc, 0x21, 0xfc, 0xd2, 0x49, 0xdc,
  0x08, 0xde, 0x3c, 0xe5, 0x35, 0x19, 0xe4, 0xad, 0xff, 0xbc, 0x32, 0xd2,
  0xb3, 0xe4, 0xb0, 0x29, 0x09, 0x1a, 0xc8, 0xf9, 0x2b, 0x46, 0x15, 0x05,
  0xfd, 0x68, 0xf5, 0x23, 0x08, 0x6d, 0x61, 0xb2, 0x06, 0x31, 0x24, 0x0d,
  0xbb, 0xd7, 0x2c, 0x1a, 0x96, 0xa1, 0xdc, 0x1b, 0xbf, 0xca, 0x29, 0x1f,
  0x81, 0x27, 0xdc, 0xc3, 0xf8, 0x17, 0x17, 0xf1, 0xe0, 0x56, 0x2a, 0x01,
  0xc6, 0xfe, 0xaf, 0x1d, 0x0f, 0xdf, 0x0b, 0x07, 0xfb, 0xcb, 0x05, 0x0d,
  0x26, 0xd2, 0x75, 0xb4, 0x12, 0x76, 0xe4, 0x20, 0x1a, 0x3a, 0xcd, 0x30,
  0xe3, 0xed, 0x32, 0xa6, 0x81, 0xb1, 0x4b, 0xe3, 0xec, 0xf3, 0xc1, 0xf2,
  0xb3, 0x6f, 0x36, 0xca, 0x91, 0x32, 0xc3, 0x88, 0x0e, 0x41, 0x11, 0x0a,
  0x33, 0x62, 0xff, 0xeb, 0x0b, 0x3e, 0xd4, 0xd0, 0xaf, 0x19, 0xce, 0x27,
  0x10, 0x4e, 0x44, 0xfe, 0xc0, 0xc4, 0xcf, 0x32, 0xfa, 0xcb, 0xe5, 0x4a,
  0xba, 0x08, 0x15, 0x32, 0xab, 0x03, 0x0b, 0x36, 0xaf, 0xea, 0xf8, 0xf0,
  0x1b, 0x41, 0xc0, 0x22, 0xc4, 0x60, 0xf0, 0x17, 0xd0, 0xa8, 0x08, 0xc4,
  0x65, 0x3c, 0xad, 0x27, 0xbe, 0x4d, 0x28, 0xcd, 0x48, 0xdf, 0x81, 0x06,
  0xc2, 0x27, 0x06, 0xe2, 0xe1, 0xcd, 0xd1, 0xfe, 0xf0, 0x00, 0xc6, 0x33,
  0xbc, 0x4f, 0xc7, 0x72, 0x0f, 0xb5, 0xf7, 0x00, 0x61, 0x44, 0x30, 0x13,
  0xd5, 0xea, 0x0a, 0xb4, 0x1c, 0xb3, 0xdb, 0xfa, 0xc4, 0xe6, 0xd0, 0xe0,
  0x44, 0x2f, 0x15, 0xef, 0xe1, 0x4f, 0x13, 0x25, 0x32, 0xd2, 0x34, 0xef,
  0x34, 0x34, 0xd9, 0xa6, 0x1b, 0xdf, 0xd0, 0x12, 0xa6, 0xb7, 0xeb, 0x24,
  0xad, 0x1e, 0x2e, 0xdd, 0xd1, 0xcd, 0xf8, 0xff, 0xee, 0xda, 0x20, 0xf6,
  0xd5, 0xcb, 0x7f, 0x05, 0x3b, 0x1c, 0xcf, 0x10, 0x43, 0xdf, 0x86, 0x27,
  0x2d, 0xf8, 0xe7, 0x44, 0x3f, 0xf1, 0x2d, 0xa6, 0x50, 0x4b, 0xfe, 0x0b,
  0x37, 0xca, 0xef, 0xe0, 0xf2, 0xb4, 0x58, 0x93, 0xbd, 0x50, 0xee, 0x3d,
  0xd2, 0xf6, 0x10, 0x93, 0x32, 0xbc, 0x0e, 0xf7, 0xf5, 0xa2, 0x7f, 0xe7,
  0x21, 0xbe, 0xe9, 0xbb, 0x05, 0x0c, 0x26, 0xdf, 0x3f, 0xd6, 0xea, 0x41,
  0x51, 0x56, 0x0d, 0xe0, 0xeb, 0x93, 0x62, 0xc2, 0x3b, 0xf1, 0xd7, 0xe4,
  0x13, 0xfd, 0x27, 0xcd, 0xaa, 0xcc, 0xb3, 0x14, 0x34, 0xec, 0x8c, 0x1d,
  0x02, 0xfc, 0x23, 0xde, 0x5d, 0xc0, 0x1b, 0x5a, 0xaa, 0x09, 0x21, 0x09,
  0x55, 0x14, 0xd4, 0x7f, 0x5f, 0x16, 0x1a, 0x6c, 0xff, 0xdc, 0xcb, 0xa2,
  0xab, 0xdc, 0x55, 0xe5, 0x2a, 0xab, 0xf1, 0x2f, 0x0a, 0xec, 0xde, 0xcc,
  0x4e, 0xff, 0xd4, 0x40, 0xf4, 0x35, 0x04, 0xa2, 0xfa, 0xd0, 0xa0, 0xf7,
  0xdc, 0x17, 0xce, 0x0f, 0xd6, 0x81, 0x1a, 0x1b, 0x10, 0x09, 0x11, 0x1c,
  0x3d, 0xe9, 0xe9, 0xea, 0x0b, 0x08, 0xea, 0xe3, 0xc9, 0xf3, 0x1c, 0x02,
  0x1a, 0xa6, 0x27, 0xc0, 0x08, 0xfb, 0x42, 0xdb, 0xfd, 0xdf, 0x24, 0xd5,
  0xdb, 0x0a, 0x20, 0x25, 0xd2, 0xd3, 0xd3, 0x50, 0x07, 0xfa, 0xf3, 0x03,
  0x46, 0x14, 0x0b, 0xe2, 0xf3, 0x07, 0x2f, 0x1e, 0x02, 0x01, 0xf6, 0xdc,
  0x13, 0x0e, 0x32, 0x04, 0xac, 0x23, 0xc2, 0x1f, 0xe9, 0xf6, 0x0d, 0xaf,
  0xdf, 0x0b, 0x0e, 0x96, 0x4e, 0x18, 0xee, 0x97, 0x1a, 0x07, 0x2c, 0x61,
  0x10, 0xf7, 0xfa, 0xac, 0x0a, 0x3b, 0x07, 0xfe, 0x45, 0x42, 0xeb, 0x24,
  0xc8, 0xfd, 0xe1, 0x34, 0x4b, 0x1b, 0xe2, 0x30, 0x01, 0x7c, 0x73, 0x14,
  0x41, 0xd7, 0x2c, 0x01, 0xc2, 0xc4, 0x34, 0xc2, 0x00, 0xee, 0xfe, 0x27,
  0x7f, 0x9e, 0x2f, 0x2b, 0xe2, 0x43, 0x19, 0x8b, 0xbe, 0x56, 0xc4, 0x9d,
  0x81, 0xf7, 0x65, 0xf2, 0x18, 0xe6, 0xc2, 0x27, 0x39, 0xaa, 0xfe, 0xde,
  0xdd, 0xda, 0x22, 0xfd, 0xfc, 0xe9, 0x4b, 0xd0, 0x0d, 0xda, 0x53, 0x0c,
  0x08, 0xf9, 0xc5, 0xef, 0xe6, 0xf7, 0xc3, 0xca, 0x3a, 0x62, 0x2e, 0x25,
  0x03, 0xc8, 0xbb, 0xe7, 0xc4, 0xd1, 0xe1, 0xc4, 0x01, 0xb0, 0xa8, 0xca,
  0x09, 0x30, 0x2e, 0xe0, 0x4d, 0x5b, 0x5d, 0x19, 0x04, 0x93, 0x69, 0x31,
  0xde, 0xf8, 0xec, 0xed, 0x1a, 0xf5, 0x0f, 0xc3, 0xf0, 0x05, 0xf7, 0x25,
  0x18, 0xab, 0xb9, 0x4c, 0xd3, 0xdd, 0x10, 0x17, 0xfb, 0x22, 0x22, 0x44,
  0x37, 0xdb, 0xd6, 0xe6, 0xdb, 0x2b, 0x0c, 0xf8, 0xff, 0xef, 0x08, 0x41,
  0xe1, 0x05, 0x7f, 0xeb, 0x04, 0x17, 0xfd, 0x23, 0x32, 0x47, 0x3b, 0xc1,
  0x3a, 0xd9, 0x1b, 0x4a, 0x2e, 0x1c, 0xe3, 0x2f, 0xc8, 0x23, 0x29, 0xfe,
  0xbc, 0x30, 0x45, 0x1f, 0x22, 0x65, 0xef, 0x71, 0xdc, 0x13, 0x11, 0x86,
  0x51, 0xd1, 0xb4, 0x1a, 0x23, 0xc4, 0xb7, 0x1e, 0x27, 0xa9, 0x11, 0x4b,
  0xea, 0x0e, 0x21, 0xfa, 0x1e, 0x0b, 0xcc, 0x25, 0x73, 0x03, 0x22, 0x37,
  0x36, 0xdd, 0x7f, 0xfe, 0xfd, 0xe9, 0xb8, 0xf5, 0x1c, 0x30, 0x4c, 0xce,
  0xc1, 0x06, 0x1a, 0x8c, 0x0c, 0x44, 0xa0, 0x1b, 0x25, 0x7b, 0xc8, 0xde,
  0xef, 0x17, 0x7b, 0xb9, 0xfb, 0x47, 0xd7, 0x11, 0x0c, 0x6b, 0xff, 0xaa,
  0xbd, 0xfd, 0x04, 0x0a, 0x58, 0xfe, 0xd7, 0x3a, 0xae, 0x41, 0x4c, 0xbf,
  0xe7, 0xe9, 0xfe, 0x16, 0xe0, 0x2b, 0x5d, 0x06, 0x2b, 0xc2, 0xfc, 0x6a,
  0x4b, 0x44, 0x87, 0xe7, 0xea, 0xb0, 0x37, 0x2b, 0x2d, 0xd9, 0xd7, 0xd5,
  0x9f, 0x10, 0x33, 0x58, 0xb1, 0x4f, 0xeb, 0x0d, 0xb4, 0x92, 0x1d, 0x49,
  0xe9, 0x65, 0x14, 0x81, 0xeb, 0x44, 0x3a, 0x19, 0xeb, 0x25, 0xd2, 0xe0,
  0x09, 0x21, 0x0d, 0xe4, 0xf0, 0x41, 0xfd, 0x02, 0x42, 0x44, 0x10, 0x0d,
  0xda, 0x1d, 0xf2, 0x1d, 0x02, 0xe4, 0x4a, 0xfc, 0x02, 0x14, 0x22, 0xf6,
  0x2f, 0xfe, 0x43, 0x7f, 0x2a, 0x29, 0xd5, 0x37, 0xf1, 0x29, 0x1a, 0xde,
  0x12, 0x19, 0xeb, 0x0f, 0xf5, 0x29, 0x10, 0xfc, 0xd3, 0x37, 0x13, 0x5b,
  0x15, 0x06, 0x29, 0xfc, 0x1a, 0x0e, 0xef, 0xf3, 0xe4, 0xfb, 0x0b, 0xe8,
  0xee, 0x08, 0x2b, 0x15, 0xd1, 0xdc, 0x27, 0xda, 0x4e, 0x25, 0x8b, 0xea,
  0x4b, 0xf5, 0x01, 0x91, 0xb7, 0xff, 0x81, 0xa6, 0x27, 0x27, 0x98, 0x0a,
  0x9b, 0x2f, 0xfe, 0xd7, 0xea, 0xec, 0xb3, 0xe4, 0xeb, 0xba, 0x33, 0x2c,
  0x20, 0x27, 0x7b, 0xe1, 0xa1, 0x01, 0xdb, 0x6b, 0xcc, 0xa7, 0x8d, 0x4a,
  0x06, 0xad, 0x10, 0xda, 0x69, 0x48, 0xc9, 0xdd, 0x0d, 0xbf, 0xa9, 0x9b,
  0xf7, 0xfb, 0x52, 0xf6, 0x3f, 0xf9, 0xed, 0x2d, 0xab, 0xf8, 0x64, 0xcd,
  0xfa, 0x5c, 0xd2, 0xc2, 0xfb, 0x25, 0x33, 0x53, 0xfc, 0xe0, 0x56, 0x9e,
  0xb7, 0x3f, 0x81, 0xea, 0xff, 0x36, 0xe7, 0xc5, 0xdf, 0xcb, 0x1a, 0x0f,
  0x58, 0xf7, 0xd6, 0xa2, 0xae, 0x39, 0xfa, 0xd9, 0xc2, 0x2a, 0x3b, 0xf6,
  0x96, 0x3c, 0xd6, 0x13, 0x28, 0xb4, 0xf4, 0x31, 0xe0, 0x31, 0x14, 0x5b,
  0xfd, 0xc6, 0x00, 0xb1, 0xc7, 0x1a, 0xad, 0x2c, 0x27, 0x41, 0xc4, 0xf7,
  0xac, 0xd0, 0xd1, 0xdd, 0x02, 0x3b, 0x7f, 0xf5, 0xed, 0x27, 0xe8, 0xec,
  0xda, 0xe6, 0xf4, 0xd0, 0xf0, 0xf3, 0xed, 0x1f, 0x99, 0xda, 0x2d, 0x09,
  0x10, 0xdd, 0x03, 0xcf, 0x01, 0x13, 0xf4, 0x0c, 0x14, 0x14, 0xd0, 0xf1,
  0x1c, 0xd7, 0x29, 0x27, 0x15, 0xf5, 0xd0, 0xec, 0x0c, 0x3c, 0xe7, 0x13,
  0xfe, 0x16, 0x1e, 0x37, 0x1d, 0xf0, 0x2c, 0xd0, 0xcf, 0xe2, 0x1d, 0xe5,
  0x02, 0x01, 0x03, 0xdf, 0xf2, 0x31, 0xee, 0xce, 0xf2, 0x05, 0x07, 0xb1,
  0xdd, 0xca, 0xac, 0xb9, 0x20, 0x1b, 0x33, 0xf7, 0x11, 0x4f, 0x1d, 0x81,
  0x58, 0x02, 0x27, 0x3b, 0x06, 0x23, 0xb9, 0x25, 0xe5, 0x40, 0xef, 0xe1,
  0x3c, 0xc9, 0x7b, 0xdd, 0xed, 0xc7, 0xce, 0xea, 0x53, 0x12, 0x22, 0xf0,
  0x15, 0x05, 0x92, 0xe3, 0x8f, 0xd1, 0x2f, 0xac, 0xd5, 0x20, 0x13, 0xb7,
  0xe9, 0xfb, 0x5d, 0x14, 0xc7, 0xec, 0xc8, 0x04, 0xda, 0x81, 0x48, 0xb5,
  0xee, 0xb1, 0x36, 0x25, 0xf2, 0x0f, 0xfc, 0x03, 0xad, 0x25, 0xf2, 0xfb,
  0x19, 0xd5, 0xeb, 0x29, 0x0a, 0x62, 0xf7, 0x1d, 0xec, 0x04, 0x1f, 0x2a,
  0xd9, 0x42, 0xe3, 0xa4, 0xc0, 0xbf, 0xbd, 0xc9, 0x12, 0x32, 0xca, 0xd5,
  0xdf, 0x26, 0xd0, 0x11, 0xc6, 0xda, 0xf1, 0xf3, 0xd2, 0xe7, 0xa4, 0x0a,
  0xe6, 0x13, 0xab, 0xe2, 0x4f, 0xf3, 0x0d, 0x16, 0x38, 0x1a, 0x50, 0x41,
  0x09, 0x0e, 0x42, 0xd6, 0xa2, 0xdc, 0x2f, 0x2c, 0x17, 0x33, 0xca, 0x11,
  0x3c, 0x19, 0x07, 0x33, 0x23, 0xcf, 0xee, 0x4e, 0xfe, 0x01, 0xc5, 0xc1,
  0x36, 0x17, 0x81, 0x2c, 0xcd, 0xf5, 0x2f, 0x12, 0xa3, 0xf2, 0x26, 0x16,
  0x65, 0xd3, 0xfd, 0x08, 0x0f, 0x5f, 0xf9, 0xee, 0x33, 0xd7, 0x3c, 0xbd,
  0xef, 0xf9, 0xa3, 0x16, 0x1b, 0xd1, 0x42, 0x2b, 0x41, 0xef, 0x30, 0xc2,
  0x33, 0xe8, 0x3f, 0xdb, 0xb3, 0xc5, 0xe7, 0x10, 0xbc, 0xb7, 0x9c, 0x35,
  0xad, 0xad, 0xd0, 0x18, 0x05, 0xde, 0xf2, 0xc6, 0x73, 0x08, 0x81, 0xd4,
  0x4f, 0x89, 0x1f, 0x5b, 0x2e, 0x02, 0x04, 0x06, 0xda, 0xeb, 0xcb, 0xf2,
  0x1b, 0x99, 0xfa, 0x0d, 0x8d, 0xd1, 0x20, 0xa2, 0x30, 0x21, 0x97, 0x8c,
  0xb4, 0x87, 0x27, 0xd6, 0x1c, 0x26, 0x01, 0x17, 0xdd, 0xd0, 0xf7, 0x27,
  0x75, 0xcb, 0x01, 0x04, 0x18, 0xa4, 0xfc, 0x39, 0xf6, 0x16, 0xce, 0x0b,
  0x0c, 0x43, 0xcb, 0xfb, 0x0f, 0xee, 0xdf, 0xf8, 0xea, 0xfa, 0xb5, 0x09,
  0xf3, 0xe7, 0xff, 0x7f, 0x3f, 0xe2, 0x06, 0x24, 0x2c, 0x04, 0xb1, 0xf6,
  0xfa, 0xb6, 0xbc, 0x34, 0xbf, 0xcf, 0xb8, 0x12, 0xda, 0xf9, 0x1d, 0x45,
  0xfd, 0x49, 0xdc, 0x2c, 0xa2, 0xca, 0x0e, 0xf4, 0xa7, 0xe6, 0x09, 0xf0,
  0x4f, 0x76, 0x12, 0xf6, 0xe6, 0xc2, 0x14, 0x33, 0x33, 0xf1, 0xdd, 0x51,
  0x33, 0xbe, 0x35, 0xd4, 0xce, 0x07, 0x9d, 0x4b, 0xce, 0x30, 0x36, 0xd5,
  0x1d, 0x09, 0xeb, 0x2a, 0x5e, 0xca, 0x0d, 0xf7, 0xe1, 0x50, 0x2b, 0x22,
  0x17, 0xe9, 0xe2, 0x25, 0x81, 0x3b, 0xf1, 0x8b, 0xbd, 0xfa, 0x9e, 0x08,
  0xcb, 0x30, 0xb0, 0xdc, 0xbe, 0x06, 0x41, 0x0d, 0xb6, 0xf8, 0x25, 0x09,
  0x63, 0xc1, 0x26, 0x48, 0x1e, 0x15, 0xee, 0xb1, 0xdc, 0xe1, 0x47, 0xc6,
  0xa6, 0x93, 0xdd, 0x14, 0x16, 0xe5, 0x3e, 0xc9, 0x18, 0xdb, 0x27, 0xff,
  0xbe, 0xb1, 0x23, 0x40, 0x30, 0xd4, 0x47, 0x5e, 0x1d, 0xf5, 0xc3, 0xc9,
  0x5f, 0x28, 0xe1, 0xde, 0x09, 0xed, 0xf0, 0x15, 0xef, 0x0c, 0x14, 0x5d,
  0xdb, 0x3f, 0x38, 0xdd, 0xfe, 0x98, 0x36, 0xeb, 0xe7, 0x0b, 0x9c, 0xd7,
  0xea, 0xf1, 0x08, 0x20, 0x21, 0x3b, 0xec, 0xb0, 0xde, 0x3b, 0x81, 0xfe,
  0x06, 0x4f, 0xf2, 0x47, 0xee, 0x11, 0x02, 0xfc, 0x30, 0xeb, 0x9d, 0x0e,
  0x2e, 0xe4, 0x1d, 0x13, 0x37, 0x69, 0x28, 0xfe, 0xdb, 0xcc, 0xb7, 0xe2,
  0x08, 0x8e, 0x40, 0xdd, 0x2a, 0x2f, 0x1a, 0xec, 0xc7, 0xa7, 0x23, 0xdf,
  0x52, 0xe6, 0xe7, 0x46, 0xab, 0xc2, 0x0e, 0x7f, 0xad, 0xea, 0x07, 0x09,
  0x0e, 0x1c, 0x4f, 0xcc, 0x36, 0xbf, 0xfd, 0xf6, 0xe7, 0x08, 0x21, 0x13,
  0x3a, 0x00, 0x4c, 0x2a, 0xdb, 0xdd, 0x95, 0x9a, 0xee, 0x02, 0xc3, 0x5d,
  0xed, 0x81, 0x3d, 0x6f, 0x73, 0xd9, 0x1c, 0x22, 0x16, 0x28, 0x1d, 0xda,
  0x41, 0x01, 0x46, 0x4a, 0x0f, 0x2c, 0x18, 0xf2, 0xfc, 0xf9, 0xe3, 0x07,
  0x36, 0x25, 0x1e, 0xcd, 0x22, 0xbc, 0x57, 0x46, 0x36, 0x19, 0xf1, 0x0e,
  0xe7, 0xde, 0xfe, 0xdd, 0x30, 0x29, 0x1f, 0x22, 0xfb, 0x3a, 0x31, 0x03,
  0xfe, 0x20, 0xd4, 0xe4, 0xe1, 0xdd, 0xd3, 0xf9, 0x0e, 0xf6, 0xea, 0x1a,
  0xed, 0xf0, 0x07, 0x1d, 0xf0, 0xdb, 0x06, 0x99, 0xf5, 0x37, 0x2a, 0xd8,
  0x67, 0xcc, 0x97, 0x23, 0xfa, 0x31, 0xfa, 0xfb, 0x60, 0xc8, 0x96, 0xe8,
  0xc9, 0xd7, 0xd4, 0xeb, 0xf5, 0x38, 0x35, 0x0f, 0x49, 0xc3, 0xfe, 0x26,
  0x33, 0x19, 0xd4, 0xb2, 0x68, 0x18, 0xa8, 0xef, 0xb2, 0x10, 0xf3, 0x03,
  0xe0, 0x7f, 0x09, 0xf8, 0x3b, 0xdf, 0xe6, 0xeb, 0x07, 0xef, 0xf9, 0xec,
  0x13, 0xd6, 0x70, 0x33, 0x18, 0xe1, 0xd4, 0x11, 0x19, 0xce, 0x14, 0xfa,
  0x40, 0xf2, 0x03, 0xd3, 0xe8, 0xff, 0xf2, 0x0c, 0xde, 0x29, 0xe0, 0x09,
  0xbd, 0xfa, 0x27, 0x02, 0xeb, 0x2f, 0xf6, 0xfe, 0x11, 0xd0, 0x2a, 0x10,
  0x1e, 0xef, 0xce, 0x48, 0x1c, 0x4c, 0x01, 0xcd, 0xc2, 0xa2, 0x99, 0xfd,
  0xde, 0x8f, 0x04, 0x12, 0xbe, 0x33, 0xc3, 0xc7, 0x39, 0xb9, 0xf8, 0xe8,
  0x81, 0x20, 0x2a, 0xb4, 0x2c, 0xfd, 0x18, 0xd5, 0x17, 0x03, 0x00, 0xd4,
  0x15, 0x7f, 0xce, 0x04, 0x26, 0xb0, 0xfc, 0xf9, 0x26, 0xcb, 0xc3, 0xe2,
  0xeb, 0x01, 0xe8, 0xf3, 0x90, 0x09, 0xed, 0xe3, 0xa3, 0xde, 0xff, 0x3b,
  0x00, 0xd8, 0x15, 0xbe, 0xce, 0x23, 0x6c, 0x14, 0xe9, 0xa7, 0xed, 0x33,
  0xa0, 0xe8, 0x0e, 0x20, 0xeb, 0x0c, 0x0c, 0x46, 0x27, 0x2b, 0x0d, 0xfc,
  0x0d, 0xcc, 0xdc, 0x45, 0xc0, 0x00, 0xd7, 0xee, 0x19, 0xfc, 0xfd, 0x0c,
  0xff, 0xf7, 0x19, 0xf8, 0x00, 0x00, 0x00, 0x00, 0xde, 0xce, 0xff, 0xff,
  0x04, 0x00, 0x00, 0x00, 0x00, 0x10, 0x00, 0x00, 0x47, 0xec, 0x08, 0xdb,
  0xda, 0xba, 0xea, 0xd2, 0xc5, 0xba, 0x1f, 0x0d, 0x1d, 0x0f, 0x3f, 0x22,
  0xc4, 0x07, 0xef, 0x06, 0xf7, 0x27, 0xe3, 0x3a, 0x03, 0xb7, 0x39, 0x18,
  0x28, 0x36, 0x19, 0xb3, 0xe2, 0xee, 0xd1, 0xb5, 0x0b, 0xe9, 0x1f, 0x81,
  0xd0, 0x1b, 0xe5, 0x1d, 0xbd, 0xff, 0xfd, 0xa1, 0xc7, 0x54, 0xf1, 0x3f,
  0x2b, 0xdb, 0x11, 0x41, 0xec, 0xdc, 0x40, 0xf7, 0xec, 0xf1, 0x26, 0x18,
  0x08, 0x81, 0x0a, 0x14, 0x10, 0x07, 0x0c, 0xf5, 0x16, 0xea, 0x0f, 0xd1,
  0x21, 0xda, 0x21, 0xe0, 0x04, 0xd1, 0x05, 0x2f, 0x20, 0xc8, 0xa4, 0xb5,
  0xda, 0x11, 0x06, 0x0e, 0x01, 0x09, 0xb6, 0xe0, 0x1d, 0xc7, 0xdf, 0x1d,
  0x03, 0xd1, 0x4e, 0x8b, 0x06, 0xde, 0xfa, 0x12, 0x0a, 0xf8, 0xde, 0xed,
  0x2d, 0x1b, 0xaf, 0xb8, 0x16, 0x20, 0x05, 0xe0, 0x2d, 0xd1, 0xc6, 0xd6,
  0x15, 0xf1, 0xcf, 0x26, 0x04, 0x0b, 0xf9, 0x07, 0xea, 0x08, 0x7f, 0x0e,
  0x07, 0xd3, 0x06, 0xd5, 0xdb, 0xc1, 0x21, 0xde, 0xf9, 0xe6, 0xcf, 0xf5,
  0xeb, 0xa9, 0xdb, 0x13, 0xe6, 0x16, 0xe0, 0x10, 0xce, 0x0a, 0xfd, 0xd4,
  0x05, 0xf2, 0x4b, 0x2a, 0x0d, 0xf2, 0x27, 0xcb, 0x03, 0xea, 0xf8, 0xcf,
  0xe6, 0x2d, 0x00, 0xc3, 0x13, 0x06, 0x15, 0xbc, 0x06, 0x28, 0x51, 0xb0,
  0xee, 0xde, 0x47, 0x16, 0x18, 0x31, 0xf3, 0x49, 0xeb, 0x2e, 0x30, 0xbe,
  0x2a, 0x2a, 0xed, 0xee, 0x31, 0x47, 0xee, 0xe0, 0xfd, 0xd1, 0x1c, 0xf0,
  0xd6, 0xdb, 0xc2, 0xfd, 0xfb, 0xe0, 0x13, 0xc6, 0xe8, 0xc7, 0xe5, 0xd3,
  0xf9, 0x0d, 0x4a, 0x07, 0xca, 0x15, 0x38, 0x13, 0xda, 0xaf, 0x29, 0x25,
  0x4f, 0x81, 0x04, 0x12, 0x30, 0x3c, 0x0f, 0xfd, 0x1f, 0xc3, 0xe7, 0x13,
  0xdc, 0x3a, 0x0a, 0xdb, 0x2a, 0xe5, 0xf8, 0xd3, 0xfe, 0x20, 0x38, 0x26,
  0x21, 0xbd, 0x25, 0xb6, 0xe6, 0x5b, 0x02, 0x21, 0x65, 0xd5, 0xcd, 0x18,
  0x9b, 0xec, 0x81, 0x59, 0xfe, 0x07, 0xdd, 0x7c, 0x06, 0xba, 0x29, 0x2b,
  0xb9, 0x01, 0x32, 0xa7, 0xfa, 0xe0, 0x1e, 0x0c, 0x35, 0x7a, 0x18, 0xef,
  0x1e, 0x0d, 0x01, 0x10, 0x09, 0x25, 0x11, 0x4d, 0x14, 0x3a, 0x31, 0x26,
  0x7d, 0x00, 0x57, 0x34, 0xf2, 0x38, 0x15, 0xf4, 0xa2, 0xc4, 0xd7, 0x29,
  0x26, 0x0d, 0xd4, 0x01, 0x3c, 0x12, 0xdf, 0xcc, 0x7c, 0xfb, 0x25, 0x36,
  0x21, 0xf2, 0xe9, 0xe0, 0x12, 0xaa, 0x5e, 0xff, 0xbe, 0xf5, 0xaa, 0x0c,
  0x8c, 0x34, 0xce, 0xfc, 0x07, 0xce, 0x0d, 0x71, 0xa9, 0x1b, 0x0c, 0xae,
  0xe2, 0x0f, 0xcf, 0x17, 0xeb, 0xcc, 0x21, 0x1d, 0xbd, 0xdb, 0x5b, 0xa7,
  0xab, 0x1e, 0xd7, 0x25, 0xf7, 0xc3, 0x00, 0xd6, 0xe0, 0xf3, 0x27, 0xe6,
  0xeb, 0x7f, 0x36, 0xd0, 0xec, 0xa5, 0xde, 0x5d, 0x19, 0x40, 0x37, 0x9a,
  0x93, 0xd6, 0xc1, 0x18, 0x24, 0xf9, 0x0c, 0x61, 0xff, 0x15, 0xf3, 0x18,
  0xbe, 0xa6, 0xbd, 0x29, 0x35, 0xd9, 0x4c, 0xd6, 0xd1, 0x01, 0xa1, 0xb8,
  0xbf, 0x26, 0xf8, 0x1e, 0xd2, 0x10, 0x48, 0xf5, 0x15, 0xc6, 0xed, 0xcc,
  0x16, 0x0f, 0x4a, 0xe7, 0xd7, 0xe1, 0xf6, 0xde, 0x48, 0xf4, 0xd9, 0x9c,
  0x2a, 0xd6, 0xe5, 0x1c, 0x13, 0xb8, 0x81, 0x42, 0xdb, 0xaa, 0xab, 0x69,
  0xb4, 0x0b, 0x32, 0xdc, 0xd3, 0xe8, 0xf4, 0x0c, 0xaf, 0x88, 0xff, 0xd7,
  0xf2, 0xd3, 0x45, 0x68, 0x2c, 0xf7, 0x7f, 0xf9, 0xbe, 0x7f, 0x2c, 0xd2,
  0x3c, 0xd8, 0xfc, 0x92, 0xd4, 0xbb, 0x15, 0x57, 0x2a, 0xea, 0x2f, 0xda,
  0x04, 0xc6, 0xa1, 0x1b, 0xcf, 0x3d, 0xc6, 0xee, 0x16, 0xa3, 0x21, 0x4a,
  0xa3, 0xaf, 0x00, 0x37, 0xfe, 0x0c, 0xc5, 0xeb, 0xbe, 0x19, 0xc2, 0xed,
  0xd0, 0x4e, 0x2f, 0xbd, 0x14, 0x4d, 0xd6, 0xfd, 0xd8, 0x19, 0x09, 0x28,
  0x43, 0xfe, 0xf2, 0xf8, 0xee, 0x31, 0xcf, 0xf8, 0x1f, 0xd5, 0xe5, 0xf6,
  0x02, 0x22, 0x45, 0xe2, 0x31, 0xf9, 0x15, 0x36, 0xe8, 0xf1, 0x40, 0x17,
  0xd6, 0x00, 0x34, 0x01, 0xd7, 0x25, 0xd0, 0xe6, 0x08, 0x7f, 0x43, 0xf7,
  0x07, 0xfd, 0x23, 0xeb, 0x1c, 0xf1, 0x08, 0x1d, 0xd9, 0xb0, 0xe9, 0xca,
  0xfd, 0xe2, 0x1f, 0xdc, 0x1a, 0x0d, 0x01, 0xa3, 0xb1, 0xb9, 0xe3, 0x8a,
  0xc2, 0xae, 0x4d, 0x12, 0xda, 0x40, 0xa4, 0xe9, 0xbd, 0xf0, 0x81, 0x0b,
  0x2b, 0xd1, 0xdd, 0xab, 0xab, 0x1b, 0xa3, 0xb8, 0x79, 0xc6, 0x2b, 0x41,
  0x10, 0x1e, 0xfc, 0xa8, 0x14, 0xec, 0x1c, 0x37, 0xcd, 0x26, 0x02, 0x1f,
  0x18, 0x33, 0x40, 0xf7, 0x21, 0xfc, 0xa6, 0x5c, 0x8c, 0x86, 0x37, 0xf8,
  0x2b, 0xd4, 0x0a, 0xb0, 0xbf, 0xfb, 0x64, 0x20, 0x57, 0x52, 0xaa, 0x07,
  0x47, 0xf6, 0x7a, 0x81, 0x2a, 0x31, 0x2f, 0x0d, 0x3a, 0xf9, 0xa8, 0xb3,
  0xe1, 0xd4, 0x43, 0xb7, 0x14, 0xe8, 0x53, 0xbc, 0x45, 0xf1, 0x95, 0xbf,
  0xd4, 0xbd, 0x0a, 0x68, 0x44, 0x0f, 0x02, 0x5b, 0xec, 0xbb, 0x6a, 0x2c,
  0x0d, 0x2c, 0x27, 0x04, 0x8d, 0xda, 0xda, 0xf0, 0xe7, 0x08, 0xc5, 0xc1,
  0xcd, 0xc0, 0x22, 0xf8, 0xc0, 0xf6, 0x04, 0x9f, 0xe0, 0x02, 0x0b, 0x48,
  0x2a, 0xac, 0x4b, 0xff, 0x3a, 0xd0, 0xda, 0xc3, 0x01, 0x9f, 0xfd, 0xf7,
  0xa6, 0xf2, 0xf6, 0xea, 0xd2, 0xc8, 0xfa, 0x9a, 0x0e, 0xdb, 0x45, 0xd0,
  0x09, 0xb7, 0xfc, 0x05, 0xf3, 0x55, 0xf5, 0x15, 0xdc, 0xe2, 0xe3, 0x96,
  0x9f, 0x01, 0xec, 0x2b, 0xac, 0xe5, 0x24, 0x11, 0xdd, 0xf1, 0xfa, 0x39,
  0x2a, 0x23, 0xc6, 0x81, 0xf1, 0x2e, 0xc6, 0xf5, 0x50, 0x33, 0x7f, 0xae,
  0xc9, 0xd3, 0x0a, 0xe7, 0xc3, 0x5e, 0x09, 0x19, 0x14, 0x46, 0xee, 0x34,
  0x2b, 0xd5, 0x02, 0xd7, 0xd7, 0xd6, 0xea, 0x7f, 0x09, 0xf2, 0x28, 0x11,
  0xfa, 0x12, 0x59, 0xd1, 0xe8, 0x1a, 0xf7, 0xe3, 0x20, 0xbb, 0x2f, 0x23,
  0x23, 0x03, 0x35, 0xfb, 0x14, 0x19, 0xf1, 0x11, 0xda, 0x42, 0xf5, 0xf7,
  0xfe, 0x07, 0x07, 0x26, 0xd8, 0x5b, 0x32, 0xd1, 0x11, 0xe6, 0x4f, 0x12,
  0x2d, 0xe9, 0x10, 0xf1, 0x9f, 0xdd, 0x24, 0xf5, 0x0e, 0x33, 0x05, 0x16,
  0xe0, 0x91, 0xf4, 0x5e, 0xe1, 0x48, 0xd7, 0xf4, 0xdf, 0x0b, 0x25, 0xc6,
  0xfe, 0xe0, 0xa5, 0x31, 0xa4, 0x4f, 0xc4, 0xe5, 0x75, 0x30, 0xe7, 0xe7,
  0xce, 0xe9, 0x0e, 0x4c, 0x2e, 0xcf, 0xdc, 0xde, 0xf6, 0xab, 0xf1, 0x35,
  0x3e, 0xdd, 0x1a, 0xf2, 0x0a, 0xbf, 0xe3, 0x5f, 0x48, 0x30, 0x14, 0x93,
  0x2f, 0xe8, 0xfa, 0x5c, 0x3c, 0x43, 0x0d, 0x4c, 0x9e, 0x81, 0xf3, 0xec,
  0x49, 0x17, 0x73, 0xce, 0x06, 0xd8, 0xe3, 0xf4, 0x05, 0xf8, 0xa4, 0x26,
  0xff, 0xfc, 0x14, 0xd9, 0x03, 0x15, 0x1e, 0xcb, 0xeb, 0xbb, 0x2d, 0xe2,
  0x1e, 0xc8, 0x01, 0xda, 0xf1, 0xe9, 0x2f, 0xd0, 0x0e, 0xf8, 0x1a, 0xeb,
  0xfc, 0xb1, 0xf5, 0xf9, 0x1e, 0x3b, 0xea, 0x81, 0x90, 0xfd, 0xd4, 0xb7,
  0x02, 0xd7, 0x1e, 0xc7, 0xe1, 0xef, 0x01, 0x21, 0xce, 0x07, 0x07, 0x34,
  0x1c, 0x6b, 0x2c, 0x08, 0x34, 0xc8, 0x13, 0xc1, 0x14, 0xfe, 0x72, 0x19,
  0x32, 0x27, 0xbe, 0x4d, 0x01, 0xfb, 0xfd, 0x02, 0x18, 0x28, 0x08, 0x21,
  0xdc, 0xcf, 0xf0, 0x46, 0xd8, 0x0f, 0xfe, 0xef, 0x05, 0xf4, 0x0a, 0xf4,
  0x15, 0xf7, 0x07, 0x18, 0xda, 0x1e, 0x30, 0xed, 0x13, 0x1d, 0x1a, 0xc9,
  0xff, 0xdf, 0x7f, 0x28, 0xa5, 0x0f, 0xb9, 0xd4, 0x17, 0xd3, 0xf7, 0xdd,
  0x0a, 0xf7, 0xe0, 0x31, 0x19, 0x05, 0xa7, 0xe2, 0x27, 0xda, 0xfc, 0x15,
  0xf7, 0xf0, 0x44, 0x11, 0xf6, 0xf3, 0xfa, 0x46, 0xdb, 0x03, 0xec, 0x0e,
  0x31, 0xef, 0xfc, 0xdb, 0xef, 0x21, 0x32, 0xf5, 0x33, 0x45, 0x20, 0xe3,
  0x41, 0x07, 0xd8, 0x3b, 0xf8, 0x3d, 0x12, 0x24, 0x0f, 0x42, 0x7f, 0xc4,
  0x33, 0xf1, 0x14, 0x15, 0x22, 0xe6, 0x33, 0x04, 0x14, 0xae, 0xa4, 0xff,
  0x36, 0xf3, 0xac, 0xfb, 0xd6, 0x08, 0xb7, 0xb8, 0xd9, 0xe6, 0xf0, 0xe7,
  0x0d, 0xee, 0xbb, 0xfb, 0x88, 0xda, 0x2b, 0xb3, 0xf9, 0xf4, 0x4b, 0xf2,
  0xbb, 0xde, 0xee, 0xc7, 0x21, 0x1a, 0xba, 0x2d, 0x20, 0xcf, 0x18, 0x02,
  0xae, 0xb3, 0xe8, 0x0d, 0x8d, 0xe3, 0x10, 0x15, 0xb9, 0x70, 0xc6, 0x36,
  0xe6, 0x0d, 0xb1, 0x1d, 0xba, 0x81, 0xb9, 0x94, 0x31, 0xa8, 0xd8, 0xdd,
  0xa1, 0x78, 0xc9, 0x12, 0x2b, 0x2b, 0x57, 0x2d, 0xdd, 0x32, 0x2a, 0xc4,
  0x31, 0xa6, 0x68, 0xec, 0xe2, 0x1e, 0x2e, 0x30, 0xe5, 0x2d, 0x26, 0xfe,
  0x17, 0x31, 0x3c, 0xf8, 0x30, 0xeb, 0xda, 0x1e, 0x43, 0xf1, 0x1e, 0xc2,
  0x09, 0xca, 0xa5, 0xdc, 0x0d, 0xfe, 0x1d, 0x16, 0xbf, 0xec, 0x2c, 0x1b,
  0xe5, 0xf6, 0xe1, 0xa3, 0xce, 0x05, 0xc6, 0x29, 0xe0, 0x0d, 0x1a, 0xc3,
  0xd7, 0xc3, 0x19, 0x23, 0x28, 0xe5, 0x31, 0xf4, 0xfd, 0xea, 0xca, 0x0f,
  0x11, 0xf0, 0x2f, 0xcb, 0x12, 0x7f, 0x13, 0xfd, 0x0a, 0xd8, 0xe8, 0xbe,
  0x45, 0x0f, 0x46, 0xf7, 0x1a, 0xee, 0x30, 0xe8, 0x22, 0xfa, 0x42, 0x49,
  0xec, 0x19, 0x06, 0xe8, 0x3f, 0x09, 0xe1, 0xf6, 0x1e, 0xcc, 0xe3, 0x15,
  0x0b, 0xcd, 0x1c, 0xe5, 0x43, 0x2c, 0x1e, 0xf9, 0x16, 0x5a, 0x05, 0xb7,
  0x34, 0xd8, 0xca, 0xbb, 0xf8, 0x11, 0x0c, 0x07, 0x9b, 0x05, 0xf7, 0xd2,
  0x1d, 0x2a, 0xe9, 0xe7, 0x21, 0xe8, 0x1a, 0xe0, 0xc9, 0xcb, 0x7f, 0xf4,
  0x48, 0xf7, 0x20, 0x20, 0x2d, 0x13, 0xb4, 0xf8, 0x96, 0x01, 0xae, 0x10,
  0x5e, 0xfb, 0x37, 0xd7, 0xb3, 0x56, 0xe7, 0xe8, 0xd9, 0xfb, 0xd4, 0x19,
  0xcb, 0xdf, 0x40, 0x09, 0x9e, 0x24, 0xcb, 0xf0, 0x22, 0xc2, 0x00, 0x43,
  0x56, 0xdd, 0xfb, 0x59, 0x7f, 0x24, 0xa0, 0x9c, 0xd5, 0xea, 0xe3, 0x01,
  0xfa, 0xfb, 0x25, 0xae, 0xee, 0x27, 0xda, 0x35, 0xf9, 0x24, 0xfb, 0xc6,
  0xed, 0xb1, 0x9f, 0x38, 0x0c, 0xe6, 0xd1, 0x44, 0xd5, 0x0c, 0xee, 0xdc,
  0xa1, 0xa3, 0x29, 0x93, 0x1f, 0x26, 0x00, 0x46, 0x7f, 0xd7, 0xe8, 0x26,
  0x13, 0x24, 0xb1, 0xe5, 0x0f, 0xae, 0xe4, 0xbe, 0xfa, 0x0e, 0x3d, 0x14,
  0xc2, 0x37, 0xd5, 0x09, 0x40, 0x33, 0xab, 0xe5, 0xea, 0x9e, 0xc7, 0xdc,
  0xfe, 0xcd, 0xc9, 0xe7, 0xf6, 0x16, 0x9d, 0xf1, 0xba, 0x9f, 0x2e, 0xe7,
  0x0a, 0x1e, 0x4a, 0xe9, 0x2f, 0x0d, 0x04, 0xc4, 0xaa, 0xfe, 0xfb, 0xc4,
  0xda, 0x19, 0xf9, 0xda, 0x2c, 0xe5, 0x7f, 0xcb, 0xd6, 0x01, 0xe1, 0x0e,
  0xf3, 0xdd, 0x04, 0xee, 0x1a, 0x1b, 0xf0, 0xbb, 0xe7, 0xec, 0x24, 0xff,
  0xf3, 0x00, 0x1f, 0xfb, 0xd7, 0xdf, 0x16, 0x16, 0x04, 0xda, 0xde, 0xe5,
  0xec, 0xf2, 0x13, 0xc3, 0x15, 0x14, 0xda, 0xe9, 0xcc, 0x3f, 0xf7, 0xe0,
  0x05, 0xe0, 0x33, 0x03, 0x1d, 0xec, 0x10, 0xc0, 0xe3, 0xe9, 0xfa, 0xed,
  0x07, 0x31, 0xfc, 0x1a, 0xdf, 0x11, 0x28, 0x3c, 0x2c, 0x02, 0x21, 0x12,
  0xe1, 0x2d, 0x19, 0x81, 0xc4, 0x34, 0xd5, 0xe4, 0x1c, 0xe5, 0xfd, 0xb0,
  0x2d, 0x3c, 0x05, 0xf7, 0xfe, 0x0d, 0xec, 0xd8, 0x18, 0x01, 0xb6, 0x36,
  0xd0, 0x11, 0x16, 0x38, 0xdc, 0x29, 0xdc, 0xe1, 0xfc, 0xbb, 0xe8, 0xfb,
  0x21, 0x04, 0xea, 0xcd, 0x17, 0x11, 0xf0, 0xff, 0xe4, 0xd7, 0xef, 0xec,
  0xf4, 0xd6, 0x22, 0xce, 0x10, 0xe8, 0xfd, 0xd2, 0xc0, 0x8a, 0x45, 0x0d,
  0x15, 0xe8, 0x14, 0x27, 0xd4, 0xf5, 0x85, 0xe8, 0x20, 0xd2, 0xcd, 0x0b,
  0x34, 0x19, 0x09, 0xf8, 0x41, 0x42, 0x81, 0x01, 0x6b, 0xd6, 0xf8, 0x04,
  0xdf, 0x21, 0x30, 0x0e, 0xf9, 0x4a, 0xc6, 0xf4, 0x0e, 0x27, 0x68, 0xba,
  0x17, 0x1c, 0xe3, 0x1a, 0xe8, 0x2c, 0x59, 0xe0, 0xf0, 0xf5, 0xdb, 0xfd,
  0x46, 0xc2, 0x3c, 0xe2, 0xf5, 0xbd, 0x01, 0xf1, 0x3e, 0x06, 0x21, 0xda,
  0xc3, 0x56, 0x22, 0xd5, 0x3c, 0x49, 0xd0, 0xe4, 0x42, 0xdd, 0xdb, 0xfe,
  0x22, 0x27, 0x21, 0xb5, 0x44, 0x0f, 0x0d, 0x12, 0x71, 0xec, 0xe4, 0xef,
  0x5c, 0xb1, 0x36, 0x19, 0x58, 0xe3, 0x7f, 0xf3, 0xe1, 0xe2, 0x43, 0x36,
  0x4f, 0x0c, 0x88, 0x93, 0x14, 0x4c, 0x4e, 0xcf, 0x08, 0xbf, 0x25, 0x94,
  0xe4, 0x1d, 0x23, 0xe3, 0x30, 0xf0, 0x0a, 0xf3, 0xea, 0xcb, 0x3c, 0xd3,
  0x3f, 0x97, 0xde, 0xf6, 0xbf, 0xf1, 0x22, 0xcd, 0xe7, 0xb4, 0x4e, 0x19,
  0x00, 0x39, 0x5f, 0x36, 0xe9, 0xd6, 0x02, 0x0f, 0x20, 0xec, 0xae, 0x01,
  0xdf, 0xc7, 0x2b, 0xb5, 0xfd, 0x15, 0xfa, 0xe4, 0x00, 0x64, 0xc8, 0xe4,
  0xea, 0x2d, 0x3b, 0x13, 0xe3, 0x22, 0xc2, 0x19, 0x6d, 0xfe, 0xf0, 0xe3,
  0x15, 0x23, 0xf7, 0x10, 0x1c, 0xe1, 0x32, 0x12, 0x17, 0xf6, 0x04, 0x04,
  0x62, 0x81, 0x1f, 0x34, 0x3c, 0x48, 0x0d, 0x15, 0x14, 0x23, 0xca, 0xd8,
  0x1b, 0xf6, 0x06, 0xbe, 0xf1, 0x36, 0x43, 0xf6, 0xd9, 0x9c, 0x1b, 0x39,
  0x1a, 0x18, 0xb8, 0xfa, 0x05, 0xdb, 0x20, 0xab, 0x0a, 0xe0, 0xff, 0xeb,
  0xa9, 0x02, 0x32, 0xd4, 0xc8, 0x09, 0xdd, 0xd0, 0xd2, 0xdf, 0xf9, 0x30,
  0x1d, 0x2a, 0x0e, 0xf7, 0x81, 0xb9, 0x41, 0x3a, 0xb9, 0x9d, 0xc2, 0x11,
  0xf5, 0xbd, 0xb9, 0xcb, 0xcc, 0xa7, 0x1d, 0xb0, 0xd1, 0x3e, 0xcd, 0xca,
  0x43, 0xcd, 0x35, 0xa7, 0x4a, 0x25, 0x19, 0xd6, 0x5e, 0x33, 0x28, 0x4f,
  0x1d, 0x94, 0x3a, 0xb9, 0x26, 0xe4, 0x01, 0x2f, 0xc2, 0x0c, 0xee, 0xb7,
  0x2a, 0x95, 0x1c, 0x2f, 0x17, 0x44, 0x45, 0x38, 0xf5, 0x1b, 0x19, 0xc0,
  0x5e, 0xf6, 0x81, 0x1e, 0x1e, 0x42, 0x14, 0xae, 0x2e, 0x4d, 0x31, 0x13,
  0x0c, 0xd6, 0x35, 0x2b, 0xed, 0xff, 0xc0, 0xce, 0x49, 0x34, 0x20, 0x36,
  0x1b, 0x05, 0x0c, 0x02, 0x02, 0x53, 0xf6, 0xe4, 0x2b, 0x43, 0xcb, 0x1f,
  0x0d, 0x04, 0x12, 0xfe, 0x5b, 0xe5, 0x2b, 0xc5, 0x10, 0x3f, 0x06, 0xac,
  0x21, 0xf5, 0xd4, 0xb6, 0xd4, 0x52, 0xe1, 0x3a, 0xfb, 0xae, 0x08, 0xa6,
  0x1b, 0x03, 0xf2, 0xa6, 0x0d, 0x8e, 0x33, 0xb5, 0xdd, 0xec, 0xdb, 0xe9,
  0x19, 0x56, 0x2f, 0xbc, 0xed, 0x09, 0x27, 0x35, 0x4d, 0xc0, 0x7f, 0xe4,
  0x89, 0x0e, 0xb5, 0x1c, 0xec, 0xfa, 0x05, 0x07, 0xfe, 0x81, 0xda, 0xec,
  0x1e, 0xab, 0x2a, 0x0a, 0x06, 0xba, 0xd2, 0xe6, 0xd2, 0x58, 0xf0, 0x09,
  0xed, 0xa7, 0x3d, 0xe6, 0xf3, 0x06, 0xbd, 0x16, 0xd8, 0xe2, 0x08, 0xb3,
  0x20, 0x4a, 0x03, 0x2c, 0xf3, 0x16, 0x0e, 0xed, 0x69, 0x28, 0x37, 0x8a,
  0xd2, 0x51, 0x5e, 0x51, 0xe2, 0x24, 0x07, 0xb9, 0xc8, 0x4b, 0xa3, 0xc9,
  0x34, 0x9f, 0xc3, 0xf6, 0xc8, 0x9b, 0xfb, 0x24, 0xda, 0xbc, 0x03, 0x44,
  0xd6, 0x04, 0xfc, 0xcc, 0x17, 0xfa, 0x1c, 0xaf, 0xce, 0x95, 0xd6, 0xcd,
  0xfc, 0xc4, 0x19, 0xae, 0xd4, 0xec, 0x30, 0xd9, 0xee, 0xe1, 0x4a, 0x1a,
  0xcf, 0x21, 0xbe, 0x0b, 0xd7, 0xd8, 0xb0, 0x04, 0x25, 0x10, 0x9e, 0xf7,
  0x07, 0xef, 0x29, 0xf5, 0x81, 0x39, 0x2c, 0x0f, 0xef, 0xfa, 0x1f, 0xb2,
  0xfd, 0x31, 0x01, 0xe8, 0x18, 0xdd, 0xf9, 0xda, 0xd7, 0xf0, 0x25, 0x35,
  0xd8, 0x1b, 0x01, 0xf3, 0x11, 0xf9, 0xb0, 0xef, 0xfb, 0x50, 0x40, 0xde,
  0xf2, 0x11, 0x66, 0xe3, 0x39, 0xb3, 0x3c, 0x03, 0xe7, 0x1f, 0xc1, 0xbd,
  0x5d, 0xa3, 0xd0, 0xf6, 0xd9, 0xed, 0xe7, 0x16, 0xca, 0x14, 0x81, 0x52,
  0xe2, 0xf3, 0xcb, 0x46, 0xd3, 0xdc, 0xc5, 0x0a, 0x20, 0xdf, 0x16, 0xee,
  0x0c, 0xd0, 0xd3, 0x09, 0xba, 0x07, 0x0d, 0x69, 0xd7, 0xfe, 0x03, 0x17,
  0x4f, 0x4b, 0xbc, 0x60, 0xec, 0xd5, 0xda, 0xfc, 0xf2, 0xdd, 0xfc, 0xa9,
  0xe7, 0x2f, 0x0a, 0x66, 0x09, 0x5c, 0xe8, 0xed, 0x31, 0xbc, 0xfa, 0xe5,
  0x43, 0xfe, 0x99, 0x36, 0x09, 0x05, 0xd3, 0xd2, 0x1e, 0x01, 0x08, 0xf6,
  0x04, 0x24, 0xcd, 0xbf, 0xec, 0xed, 0xa5, 0x04, 0xd1, 0xb9, 0x03, 0x03,
  0x47, 0xdb, 0xb0, 0x42, 0x0d, 0x44, 0xa8, 0x48, 0x0e, 0xae, 0x3d, 0xe2,
  0x25, 0x6d, 0xb9, 0xdf, 0x10, 0x17, 0x1e, 0x7f, 0x28, 0x13, 0xe0, 0x29,
  0x37, 0x59, 0xd3, 0xb6, 0x4b, 0xf3, 0x2e, 0xe3, 0xf9, 0x49, 0x14, 0x61,
  0xfe, 0x35, 0x1f, 0x24, 0x05, 0xfa, 0x8d, 0xd0, 0xc0, 0xc6, 0x06, 0x21,
  0xf0, 0x1a, 0x3b, 0xb5, 0x22, 0x6b, 0xd1, 0x5a, 0x37, 0x29, 0xbc, 0xe3,
  0xe2, 0xff, 0x81, 0x43, 0x26, 0xd3, 0xd1, 0xf4, 0xc7, 0x4d, 0xaf, 0x1e,
  0xe8, 0xec, 0x4c, 0xd9, 0x3f, 0xce, 0xf3, 0x26, 0x57, 0x04, 0x15, 0x18,
  0x04, 0x07, 0x37, 0x4f, 0xf9, 0xd3, 0x2e, 0xbc, 0xed, 0xfe, 0xcd, 0x81,
  0x25, 0xeb, 0x23, 0x3f, 0x52, 0x08, 0xdd, 0xd3, 0xde, 0x13, 0xcf, 0xf0,
  0x30, 0xd6, 0xdb, 0xdf, 0x3c, 0xd8, 0x47, 0x2c, 0x0a, 0x38, 0xe5, 0xed,
  0xf9, 0xdb, 0xde, 0x41, 0xee, 0x11, 0xfb, 0x05, 0x4d, 0xcb, 0x2b, 0xf5,
  0x29, 0x26, 0xcd, 0x17, 0xf2, 0x04, 0x3f, 0xfd, 0x20, 0x11, 0xf9, 0x9b,
  0x47, 0xe9, 0x0e, 0x41, 0x03, 0x55, 0x3c, 0x4a, 0xb9, 0x23, 0x0b, 0x01,
  0x3e, 0x5b, 0x28, 0xae, 0xfb, 0xd5, 0x2e, 0xfc, 0x0f, 0xca, 0x31, 0xf2,
  0xa5, 0xf9, 0x36, 0xce, 0x35, 0x72, 0x34, 0x3b, 0x1a, 0xec, 0xd6, 0xe0,
  0x07, 0xa1, 0x02, 0xbb, 0x4a, 0xc5, 0x20, 0x2d, 0xd2, 0xca, 0x21, 0x9a,
  0xc4, 0xdb, 0x09, 0xfb, 0x20, 0xca, 0xd5, 0xe2, 0xfb, 0x7f, 0xd4, 0xe2,
  0xae, 0x3d, 0x4b, 0xdd, 0xfa, 0x4c, 0x34, 0xc6, 0xc3, 0xd3, 0x2a, 0xe0,
  0xd7, 0x00, 0x56, 0xf6, 0x9d, 0x01, 0xe9, 0xf6, 0xba, 0xde, 0xc8, 0x97,
  0x3a, 0x15, 0xfa, 0x22, 0xb9, 0xb4, 0x4c, 0x0f, 0x38, 0x3d, 0x4e, 0x3f,
  0x81, 0xbf, 0x48, 0x5c, 0xea, 0xdb, 0xe9, 0x4e, 0x98, 0xbb, 0x42, 0xef,
  0x2e, 0xeb, 0xf8, 0xcf, 0x37, 0xbd, 0xdd, 0xc3, 0x0c, 0x38, 0xf6, 0xf0,
  0x3e, 0x8c, 0x38, 0xfe, 0xe1, 0x25, 0xd9, 0xee, 0x6c, 0xef, 0xd4, 0x33,
  0xfd, 0xaf, 0x06, 0x19, 0x58, 0xeb, 0x0c, 0xc2, 0xd8, 0xe9, 0x2e, 0x38,
  0x5d, 0xed, 0xec, 0x07, 0xb1, 0xc0, 0x03, 0xd4, 0xea, 0x0c, 0x0a, 0x7f,
  0xf0, 0xdc, 0x0f, 0x01, 0x1b, 0x1b, 0xfd, 0x93, 0xff, 0x5d, 0xb9, 0x27,
  0xee, 0xf4, 0xf5, 0x2a, 0x54, 0xec, 0xec, 0xd7, 0xc9, 0x45, 0x97, 0xd9,
  0xf4, 0xef, 0xe3, 0xd9, 0x18, 0xb6, 0xcb, 0xa5, 0x1b, 0xf4, 0xb6, 0xb9,
  0x4e, 0xcb, 0xd6, 0x21, 0xc7, 0xff, 0x13, 0x8c, 0x20, 0x1e, 0xec, 0x23,
  0xe2, 0x43, 0xe4, 0x0c, 0x3c, 0x10, 0x26, 0x3f, 0xe4, 0x40, 0x11, 0xe8,
  0xec, 0xce, 0xf6, 0xec, 0xab, 0x0f, 0x9a, 0xfe, 0x10, 0x1b, 0x06, 0x2d,
  0x40, 0xdf, 0xb9, 0xe3, 0x16, 0xcc, 0x34, 0x17, 0xf6, 0x32, 0x28, 0x58,
  0x08, 0x04, 0xfe, 0xc6, 0x7f, 0x0c, 0xe1, 0xf3, 0xfa, 0xa4, 0xf0, 0x17,
  0xbd, 0xed, 0xc1, 0xed, 0xe0, 0x18, 0x0f, 0x20, 0x42, 0x24, 0x07, 0xd1,
  0x11, 0xff, 0xb1, 0xcf, 0x49, 0xe0, 0x31, 0x16, 0xaf, 0x7f, 0x6b, 0x02,
  0x13, 0xcd, 0x12, 0x0f, 0x63, 0x29, 0x02, 0xdc, 0x29, 0xf9, 0xb9, 0xe7,
  0xd8, 0xd5, 0x1b, 0xde, 0x17, 0xf4, 0xd2, 0xa4, 0xe4, 0x31, 0xf5, 0xb9,
  0x3a, 0xf9, 0x42, 0x73, 0xfc, 0x39, 0xc7, 0x1d, 0x0c, 0x0f, 0xcb, 0x24,
  0xd0, 0xaf, 0x27, 0x49, 0x35, 0x1a, 0xea, 0x08, 0xfe, 0x08, 0x0e, 0x26,
  0x35, 0xd5, 0x0b, 0x0c, 0x26, 0x47, 0xd5, 0xa9, 0x0b, 0x32, 0x11, 0x00,
  0x49, 0x27, 0xfa, 0x47, 0xce, 0xc1, 0x18, 0x98, 0x02, 0xeb, 0x01, 0xf6,
  0xe3, 0xc7, 0x1c, 0xdb, 0xdb, 0x11, 0xda, 0x13, 0x30, 0x1b, 0x19, 0xf3,
  0xe2, 0x05, 0x25, 0xe7, 0x51, 0xed, 0xf6, 0xbc, 0x0b, 0xd7, 0xdc, 0x81,
  0xf1, 0xef, 0x09, 0xa0, 0x0e, 0xd9, 0xf7, 0x1b, 0x1f, 0xc5, 0x39, 0xc5,
  0x00, 0x54, 0x34, 0x08, 0x1b, 0xb3, 0x02, 0xa9, 0x40, 0x1f, 0x1a, 0xc7,
  0xf7, 0xf1, 0xd2, 0xed, 0xfe, 0xff, 0xd2, 0x12, 0x12, 0x04, 0x12, 0x95,
  0x34, 0xaf, 0xe0, 0x12, 0x31, 0x09, 0x21, 0xf8, 0x26, 0xf5, 0x03, 0xfe,
  0x27, 0x1d, 0xf9, 0x0d, 0x1a, 0xe5, 0xf0, 0x0e, 0x54, 0x23, 0x1d, 0xe3,
  0x9c, 0xf4, 0x26, 0xe8, 0x11, 0xfb, 0x0c, 0xbd, 0x28, 0x13, 0x03, 0xb6,
  0xd7, 0x29, 0x1d, 0xbe, 0x25, 0x7f, 0x15, 0x37, 0x17, 0xf7, 0xcd, 0x32,
  0xf1, 0xd6, 0x03, 0xe4, 0x09, 0x15, 0x41, 0x0b, 0x3f, 0xfe, 0x51, 0x2a,
  0x4d, 0xf0, 0x0d, 0xbe, 0x27, 0xdf, 0x30, 0x07, 0xd9, 0xf9, 0x16, 0x07,
  0x7f, 0x15, 0x84, 0xff, 0xd9, 0x0e, 0xfb, 0x06, 0x0b, 0x27, 0x26, 0x3c,
  0x35, 0xfd, 0xe6, 0xda, 0xc6, 0x04, 0xd3, 0xe6, 0x0b, 0x18, 0xc7, 0xdb,
  0x18, 0xeb, 0x3e, 0xfa, 0xc7, 0x16, 0x46, 0xd6, 0x36, 0x0a, 0xf5, 0x44,
  0x1e, 0x4b, 0xbf, 0xf3, 0xbf, 0xcf, 0x50, 0xd8, 0xe1, 0xe5, 0x99, 0x10,
  0xf4, 0x54, 0x0c, 0x19, 0x24, 0x24, 0xd6, 0xfd, 0xca, 0xe8, 0xfc, 0xeb,
  0x2f, 0x09, 0x0f, 0x1b, 0x08, 0x0e, 0x11, 0xef, 0x18, 0x00, 0x09, 0xeb,
  0x1b, 0xdc, 0x2c, 0xa5, 0x0b, 0x15, 0x30, 0xba, 0x26, 0xdd, 0xed, 0x16,
  0xe2, 0xd3, 0xc0, 0xde, 0x26, 0x7f, 0x2e, 0x0a, 0x10, 0xec, 0xc5, 0x24,
  0xe0, 0x0a, 0xbc, 0x09, 0x13, 0xf7, 0x30, 0xf2, 0xd6, 0x56, 0xac, 0xb9,
  0x91, 0xae, 0xf3, 0xf3, 0xfc, 0x2a, 0x31, 0xfb, 0x2e, 0xd6, 0xe0, 0xdd,
  0xad, 0x2b, 0x9b, 0x3b, 0x01, 0xc6, 0x37, 0xb2, 0x95, 0x35, 0x51, 0xc2,
  0xd3, 0x20, 0xe2, 0x81, 0xee, 0xfe, 0x9e, 0x46, 0xd3, 0xda, 0x2c, 0xf4,
  0x00, 0xf7, 0x3d, 0x05, 0xe7, 0xf1, 0x08, 0xdb, 0x1f, 0xc6, 0xfd, 0xb3,
  0x1a, 0x03, 0x13, 0xb5, 0x1b, 0x08, 0x26, 0xe2, 0xf3, 0xd7, 0xc8, 0xeb,
  0x22, 0xba, 0x04, 0x16, 0xa7, 0x8e, 0x04, 0x2e, 0x2f, 0x39, 0xfd, 0xf6,
  0x49, 0xe3, 0xda, 0xe0, 0xd9, 0x09, 0xc9, 0x02, 0x0f, 0xbe, 0xe7, 0xd9,
  0xe1, 0xd3, 0x41, 0xdb, 0x19, 0x14, 0xfc, 0x0f, 0xc3, 0xd5, 0x0c, 0x0f,
  0x13, 0xf7, 0x01, 0x21, 0x27, 0xd4, 0x15, 0xf9, 0xdc, 0xbe, 0x1c, 0x08,
  0xec, 0xe3, 0xc3, 0x47, 0xc4, 0x05, 0x07, 0x1a, 0x32, 0xeb, 0x1e, 0xfd,
  0x81, 0x62, 0xe9, 0x06, 0x37, 0x01, 0xd5, 0xd5, 0x30, 0x06, 0x8e, 0xaf,
  0xdc, 0xff, 0xfe, 0x1a, 0xd9, 0xd3, 0x47, 0x14, 0xe1, 0xc2, 0xf9, 0xd3,
  0xe0, 0x01, 0xe4, 0x34, 0x0c, 0x44, 0x0f, 0x15, 0x14, 0xdd, 0x31, 0x16,
  0xdf, 0xab, 0xe8, 0xf6, 0x0e, 0xc6, 0xe1, 0x1a, 0xc6, 0xef, 0xdc, 0x08,
  0x13, 0xe0, 0x15, 0xe8, 0x05, 0x15, 0xc6, 0x4c, 0xed, 0x18, 0x2d, 0xde,
  0xc6, 0xb5, 0xad, 0xc7, 0xe9, 0x0d, 0x19, 0x7f, 0x02, 0xcd, 0x28, 0xfa,
  0xf1, 0xe4, 0xe9, 0x05, 0x3f, 0x07, 0xdc, 0xeb, 0xd9, 0xe3, 0xd1, 0x10,
  0x13, 0x2b, 0xd2, 0x09, 0xcd, 0xf7, 0xec, 0x2e, 0xc7, 0x3c, 0x19, 0xee,
  0xdd, 0x0e, 0x0f, 0x34, 0x04, 0xf7, 0x15, 0x35, 0x1a, 0xda, 0xd6, 0x81,
  0x05, 0xef, 0xfb, 0x28, 0xb6, 0x45, 0xfb, 0x13, 0x03, 0x4f, 0x24, 0x0d,
  0xbd, 0x13, 0xc3, 0xe0, 0x20, 0xd5, 0xbf, 0x33, 0xde, 0xe5, 0x39, 0xf7,
  0x27, 0xe8, 0x00, 0xda, 0x42, 0xcc, 0x34, 0xd1, 0xfe, 0x54, 0x81, 0xd2,
  0x2a, 0x09, 0xfa, 0x15, 0x0b, 0x1c, 0x36, 0x27, 0xe1, 0x3b, 0xe3, 0xeb,
  0x38, 0x91, 0x35, 0x2e, 0x31, 0x15, 0x3e, 0x25, 0x05, 0xfc, 0x0e, 0xdd,
  0xdc, 0x0f, 0x2b, 0x3b, 0xfd, 0x27, 0xdc, 0xe2, 0xf4, 0xdf, 0x47, 0x1b,
  0x3e, 0x13, 0x12, 0x06, 0xf5, 0x33, 0x19, 0x15, 0xc1, 0xdb, 0x39, 0xf9,
  0x24, 0x2c, 0x19, 0x60, 0xaa, 0x9e, 0x8b, 0x4f, 0xc9, 0xf5, 0xe7, 0x44,
  0x5e, 0x07, 0x3d, 0xd9, 0xf0, 0xfd, 0x1d, 0xbb, 0xa7, 0xdc, 0x37, 0x40,
  0xc6, 0x0a, 0x24, 0x56, 0x71, 0x31, 0xa7, 0xbd, 0xda, 0x04, 0x48, 0x9b,
  0x2d, 0xb2, 0xb9, 0x65, 0xc4, 0x81, 0xef, 0x78, 0xec, 0x52, 0x38, 0xcd,
  0x09, 0xc3, 0x9a, 0xcb, 0x31, 0xae, 0xce, 0xb3, 0x86, 0xeb, 0x99, 0x5a,
  0x2a, 0x92, 0xd4, 0xd5, 0xc3, 0xe9, 0xc2, 0x39, 0xbb, 0x44, 0xd7, 0xec,
  0xce, 0xa6, 0x01, 0x08, 0x18, 0xd1, 0xc1, 0x3b, 0xe6, 0xa4, 0xb9, 0x32,
  0xf7, 0xb0, 0xd5, 0x0c, 0xe0, 0xe5, 0xfc, 0x2d, 0xe4, 0xe6, 0xc9, 0x9e,
  0xbf, 0xe1, 0xef, 0x32, 0x07, 0xd2, 0xbd, 0x1e, 0xcd, 0xd9, 0xe4, 0x23,
  0xea, 0xce, 0x54, 0xbc, 0xe3, 0x12, 0x12, 0x0c, 0xff, 0xee, 0xf3, 0x9a,
  0xf9, 0xdc, 0x49, 0xe5, 0xef, 0xbd, 0x81, 0x0a, 0x8d, 0x2e, 0xb9, 0xff,
  0xe4, 0xcc, 0x28, 0xa6, 0x36, 0x32, 0x34, 0xdd, 0xc4, 0x52, 0x36, 0x05,
  0x29, 0x11, 0x2a, 0x38, 0x24, 0x09, 0xd5, 0xc0, 0x38, 0xe8, 0xac, 0x07,
