/**
  ******************************************************************************
  * @file    sww_model_data_params.c
  * @author  AST Embedded Analytics Research Platform
  * @date    2025-05-22T12:16:33-0700
  * @brief   AI Tool Automatic Code Generator for Embedded NN computing
  ******************************************************************************
  * Copyright (c) 2025 STMicroelectronics.
  * All rights reserved.
  *
  * This software is licensed under terms that can be found in the LICENSE file
  * in the root directory of this software component.
  * If no LICENSE file comes with this software, it is provided AS-IS.
  ******************************************************************************
  */

#include "sww_model_data_params.h"


/**  Activations Section  ****************************************************/
ai_handle g_sww_model_activations_table[1 + 2] = {
  AI_HANDLE_PTR(AI_MAGIC_MARKER),
  AI_HANDLE_PTR(NULL),
  AI_HANDLE_PTR(AI_MAGIC_MARKER),
};




/**  Weights Section  ********************************************************/
AI_ALIGNED(32)
const ai_u64 s_sww_model_weights_array_u64[6177] = {
  0x7f0a2fcd147f997fU, 0x8c6281b2ffbeab1cU, 0x64b444811413ca6dU, 0x7fae7fe622a60216U,
  0xf294c57fb1927f29U, 0x467f7f7f81d6e45bU, 0x817f3a812b818181U, 0xa081ce2a267f93d6U,
  0xca41eaa1e4217f81U, 0x328107ebe426c97fU, 0x88e90527f9c8818bU, 0xae86ea3d815222f3U,
  0x81638160810b7f81U, 0x897f4a7f817fe3ffU, 0x7f757f94817fa2d9U, 0x0U,
  0x0U, 0x0U, 0x0U, 0x0U,
  0x0U, 0x0U, 0x0U, 0x0U,
  0x0U, 0x0U, 0x0U, 0x0U,
  0x0U, 0x0U, 0x0U, 0x0U,
  0x0U, 0x0U, 0x0U, 0xd7b3fa18106f767eU,
  0x2101f9c3e5132cc6U, 0x912cbb95f105433aU, 0x2a81be103eb95ac9U, 0x7ad9a93402cd3300U,
  0xdf122da93b52337fU, 0x28d8d44003c6a1baU, 0xf8ca18270abae7f1U, 0x2af63007c2d7dd2dU,
  0xd14d4fb0ec55162U, 0x13e819d324290026U, 0xed1f81c4305f1232U, 0x290a8736adf93bffU,
  0xb741280839f7e356U, 0xc9e406300bc713f3U, 0xe2e248d1440efe36U, 0xbdc3f90ceef92010U,
  0xb3ca0ca10820f61cU, 0xdbf7cc1927c5f812U, 0xb2a52b81eb33abbdU, 0xdaa2e639a4f815e1U,
  0xdc2eceddeb312f40U, 0xc80db553ffd0d4eaU, 0xd8082ce42681d02fU, 0xe60016e14b37b720U,
  0x22290a814278d2ddU, 0x486864101186d2beU, 0xc862bbe608f9e4edU, 0x8405d84dc6f67f2aU,
  0x15dfcd2331f5d919U, 0xcdcded45bcd70bcfU, 0x30d2f38f4e02ae0U, 0xc92711bc00ea9ef0U,
  0x9b76031a081500b5U, 0xe61da37ff244273cU, 0xaf20db741bddf13cU, 0x1e81353416cdfc47U,
  0xd499f704d43aefb1U, 0x3105c4efd51f19f9U, 0x3564c4c4210ef9fcU, 0xc91f1bed4608ccf0U,
  0xa11fbbf34abdf12U, 0x51cae0dacbb37f94U, 0x15ceed23da550b4dU, 0xf1d93cc9edbed91cU,
  0xd4b1d381503cbd21U, 0xfb484c217c8041cU, 0x52dfdf2d3e8f5cdU, 0xe50e2607e5f4f620U,
  0xe4c45d30c2d14eeU, 0xefe40ed51b7f0743U, 0x3f2f6e608161651U, 0xcf3c11a1905daU,
  0xee0aebd61ce5e00dU, 0x1f04ff27f5f43330U, 0x7e8f53fe1afe2f8U, 0x22ea9b02f3f61d7fU,
  0xf44317f8191dd61cU, 0xf7ea363506cd32feU, 0xd2f32004a9ca0ee6U, 0x10043bd41bc207f2U,
  0x1101df81fad8573cU, 0x77089146911848edU, 0xc1a3cdbfec06e727U, 0xbaf852d1ab37c660U,
  0xffebfd19df2e1efdU, 0xd118ed260142f91bU, 0xe003f9e1fe0c2631U, 0xd0cf0c39f3ddf910U,
  0xef350ac121fb81d1U, 0xfde5200e4ada3d41U, 0x660df1b1c1ecc93eU, 0xa0caf7db73278521U,
  0xd919b61f1227f93U, 0x2bdfa5a2b702e393U, 0xebdd35021a3b07d7U, 0x3bbf21bfc1fef1cU,
  0x1af810ded92beed9U, 0xe029b5f32e0810f5U, 0xe68114fdd032f71dU, 0x7e4ec0d7fe0cf415U,
  0xd3df591700f2d9ffU, 0x4f01f08ff2a1519U, 0x65bf53fdd7db9ce7U, 0xc9e03891f67ff42aU,
  0xe681fc49d8f1c411U, 0x4a05e50039ebafcbU, 0xeae0210f4b70fc0aU, 0xf8db4923fc15f276U,
  0xdf46e80903edd872U, 0xcfede1bb5635efa8U, 0xfb5381c7cacad37dU, 0xd6e445be4ac9fc6aU,
  0xc2d21507f8ca3c91U, 0x2cd13318fa44e93cU, 0x81744ff55e31a25U, 0x81bd6329d9f8eccfU,
  0xecf512360ae7dc20U, 0x19dab1c4b9ec07c8U, 0x1746d1fe1d42c4d9U, 0x1a2e4a3f360dc9bfU,
  0xc9877f4e14f60dc2U, 0xd7d15bd418ea4ac7U, 0x47051fb0de06ebdaU, 0x5e01185bb60a370fU,
  0xcf11e3e2dfe9bdedU, 0x291781cf0fcbe831U, 0x1ed2ea52e4bf1d2fU, 0xe7070efb34dc1be7U,
  0xed13d0fa16f1061eU, 0x38caeff94544e4d0U, 0x3e81f7e1bdcd2559U, 0xa2012c5c02daee4U,
  0xcf030bfbaff202fbU, 0xff3eeca81bdeaecaU, 0xac8d88d72c0ae6fcU, 0x150301d8cfd8a5d3U,
  0x4afc341eca25e9e0U, 0xe7f3ee060dd6cd7fU, 0x5718eeed9aed120fU, 0x874c0513d233032U,
  0x5013c9282eefd4bdU, 0xd6e60c37c8c84c83U, 0xcdaa81bb3edf22ccU, 0x20c44822c51ce542U,
  0xedf8010efafeed0dU, 0x14ecefefede41201U, 0x3426fa2feafdda41U, 0xac7fd1e6ec152bf0U,
  0xdd0a2b4719ae40ebU, 0xf7ffbed731a80b31U, 0xba2acbd4c018d10aU, 0x283c7f92320de908U,
  0x3f0f3747e13bae19U, 0xc0a2aed1ae7bee0U, 0xdd1ceadfe33d1f95U, 0xd07ffffde6e6d748U,
  0xdeef5032e7ed23c6U, 0x5308edef9cb50517U, 0x79ed411952f62ee5U, 0x515d7e7412cf61caU,
  0x410f00eff4ec8f6U, 0x2fe3d86418736e0U, 0x40d8d210f00a0130U, 0xc7cddb638b81eaebU,
  0x44f441d2dce1b70cU, 0x243498a2f70b20eeU, 0x441e56da3a57de7fU, 0x55c94ab42958b647U,
  0xc922b719f6280328U, 0x81cfc105f1e3eef3U, 0xd1a93e117d8f0d8U, 0x8e21407dc2392f5U,
  0x33f02a0a3136e406U, 0xe20402fd3bf9f339U, 0x5b6dc61fd469db7fU, 0xb82f12b51a9c8fcU,
  0xedb11937dfa72818U, 0x62bc0c1e54130536U, 0x57c9293963a539f1U, 0xd9b64f990a5b3a8fU,
  0xa91618227f1533f1U, 0xf5f731f715d0fcafU, 0x2954f9bffa414502U, 0xbf5322d3da1cfa7cU,
  0x7fe60be3e9a2fd08U, 0x10ad481e0c30d5bdU, 0x6350da479b5030eeU, 0x9fe13f8da041836U,
  0xf0a5cefd04d82b14U, 0xcde3172b9412444aU, 0xda01bb38bd1a2e7fU, 0x19d10fe8e0f804e6U,
  0x1fd5ed33d20de1dbU, 0x27282725d82ef8cfU, 0x1600ecd2f9eeff3bU, 0x43811826ddeae32aU,
  0xeee81ed9d766ddaeU, 0xe0928f24226291dU, 0xe60b0b22193d0c0cU, 0xe263d91133af0001U,
  0x97f05bf81f15af89U, 0xf07f4e094bdae60aU, 0x18fd1d0bdbeef13aU, 0x25c82743e5caf1e0U,
  0xdb0bf7d21925d50cU, 0xdc24fa3dc153feceU, 0x260fcce6c40e097fU, 0xc5161d2429388bfdU,
  0xdd88f0ebeb2818f1U, 0x12dac031003207ebU, 0xe8fcce1c18c655d6U, 0x3e8129578cdd05d9U,
  0x2cea2de672b328e8U, 0x5c04f8ce30efe122U, 0xfd27d6e81c0c1807U, 0x17c902f4e3eccccfU,
  0xf5121c3beff2e738U, 0xb77f72c0355e0b49U, 0xbba9381ee20441c9U, 0xe7f7c2193a4e1505U,
  0xde17c9d1de4ce876U, 0x489d84658105b3ddU, 0xe82ed3eb42b4c7e8U, 0x262f43153fb6fdf4U,
  0xe7c0abf11e44eb18U, 0xfcbcfc7d019d83e3U, 0x124135d1355e81c9U, 0xf3e642130e46dc47U,
  0xedd6e10313fb023bU, 0xe9edf9ff97ecae1fU, 0x2111c540037f4cd7U, 0xddc0bfeb18f2e849U,
  0x435bd5f90101a6e4U, 0x271bf0f7cf9303e5U, 0xb0d7dce2c8810c17U, 0x30fbbed920b0215cU,
  0xc3f3278857f9baf7U, 0x8e3e05ee4cbe3cf7U, 0xeb20391f9fff1542U, 0x81e07e6c7231f11U,
  0x323113047fc90807U, 0xf10a0adbfa3eecc8U, 0xeb9ff39ba060c0fU, 0x3e50fc01d201eeb7U,
  0xaf34920de6e6e19fU, 0xe400bb067f24f68fU, 0xcca58cf4e670ee3U, 0x63036e66c23ec860U,
  0x323121017eb43f8U, 0xad63b208dd3627ecU, 0xca5f7f356bcb78d6U, 0x2eadde1a4d26f0faU,
  0x12e2e0360606170bU, 0x27af30510c3b36ecU, 0x2aabce038107d8f3U, 0x19150fd8cee4ae22U,
  0x14bedcff3fa035b6U, 0x2f841010ee5c325U, 0xdb7ac1f9ec431244U, 0x29c8b701b30d3a09U,
  0xe137d2f27fcdd6e8U, 0x3f0bf3d66d39dd29U, 0x2fb1dc30e17a042U, 0xee01290ccbfc3945U,
  0xf8d93f05c81fcf0bU, 0x40adb5e32eb3dd6U, 0xdce0d3fc17e7e5cbU, 0xf046280726a3c73fU,
  0x1d0fca7f562df1e3U, 0xd1d17e3e63ef915U, 0xf72ee0475307ccebU, 0x7fc9ed25c33823adU,
  0x523cb1930dcd13cU, 0x1f4d21f474bfdU, 0x3e29d927f0be72bU, 0x9cdbcd9f50de7eeU,
  0xfdfdd01a11f5eee4U, 0x293833d522052823U, 0xe3be220de6ea1ddeU, 0x28dfc33993d1ed20U,
  0xe4ebec3d04f4027fU, 0xbf2c5db00f616ebU, 0xfa1ff00c1fb82122U, 0x52fd616c7fbf11bU,
  0xf7232715093b5ebfU, 0x2ae57fd6bea7e71dU, 0x64e84abe202cc4f9U, 0xac3099fc16171ca3U,
  0xf020318f087da431U, 0x8cfe056658d03deeU, 0x113ac739070c062fU, 0xf0cecb37c437e8aaU,
  0x20fb7f8a1ae62211U, 0xf0ccd0bd30f015f6U, 0x2e11a0ad93b30d2U, 0xf8ebe325cdcaec1cU,
  0xdd170f0523cc071aU, 0xffaaf7f7d9226112U, 0x917fd22511e75040U, 0xcb15f6e71aec0ff5U,
  0xc2040ae3d2fa3415U, 0xe6ee01d943f31803U, 0x5ffa272beddefdeaU, 0xf5aad37fffdc4afaU,
  0xf2cddf08b37fef0fU, 0xe7b0e4f1cb3ffa35U, 0x11d8f7d45df42abfU, 0xecd5f616c1f75415U,
  0x223f72dc0bc4d4f7U, 0x43e22a06e2c71873U, 0x30dd18ca0df53030U, 0x25110734e3d838cbU,
  0x728ad53adddf39ebU, 0x8738815e1d8530ceU, 0x7fe3deeb1823e535U, 0x1854d9a9ee33fd2bU,
  0xd30c5eb122bb134U, 0x36dc37b233ca3c21U, 0xf4001e0301fc590bU, 0x1b110ce6367f0069U,
  0xecaa023be830d1e1U, 0xd4cddf290bfceed7U, 0x210904e91ff80d4fU, 0xf702d63fdad104e8U,
  0x555541270851487fU, 0x63ca14fa4b4439b3U, 0xf611175ee9350696U, 0x10c7a70cceed1a3aU,
  0x6329c2e6011a18f5U, 0xc467031421d94264U, 0xe0bf6173adbe9ccU, 0xfee22605e4d12ce9U,
  0x749fec1a81f1f7e7U, 0x313db25413a40bb4U, 0x97a0a2e01c7fdc47U, 0xc8eae0054afee1b0U,
  0x406432020143d107U, 0x20ff1650affaf254U, 0x26caaaf62bea44dfU, 0x2406b9f4f6c85201U,
  0x3bbffcdfbaa0926aU, 0xc2d5d7a461a228e3U, 0xbe5f513029121a17U, 0xb781d00c601a0c12U,
  0xf57f45dbf1f592e0U, 0x3c0216f4347d09c5U, 0xf63e16dcd627b8f2U, 0x653ad218520c3a43U,
  0x3e8dd0ec38c923beU, 0xe7b0f702fdede5e4U, 0xff401a1713d9d306U, 0xe0ff3bf11aeabe22U,
  0xcaeece0a11c5fbd2U, 0x1fe74181c045f9fcU, 0x7a3d2bae3688db2dU, 0x9ff86e68185d8187U,
  0xe030e9007c20b4cbU, 0x7e6190620f5ed16U, 0x5dd212b180528beU, 0xcbebe72e04ee0638U,
  0xd37f2409f51a08a9U, 0xadb2f01cad53cf9U, 0xb8401e3c371e194bU, 0xe5d3972d0236e1c9U,
  0xf6d0aee0264c2513U, 0xe91011fc1acf0bd8U, 0x1a1d23559d56fec8U, 0xd81241c05b81dd3dU,
  0x4307fbd813fc08f1U, 0xf04bd18ce60c701U, 0xbcf2ddbfe04463cU, 0xc6fce5c5271b4c81U,
  0x37282310f6b615f3U, 0xcb2d1fe1ec143217U, 0xf140e0990d3cc712U, 0xc8ee62cf172484d4U,
  0x40ab3af028e10eadU, 0xf421060797f9c24cU, 0xfdebf2c303a77f1eU, 0x105e718cab97fU,
  0x2f1bfdb4fb130955U, 0xd822ef69fe30f808U, 0xd79ec79dfbf80af0U, 0xbb4c062b12f400e0U,
  0x33ebe711eac75c5dU, 0xd514b71e58d220ebU, 0x2c0eba58814109daU, 0xf1c3bd9470911d08U,
  0x222908b6f8f9fa29U, 0x13d1fef7397e9b10U, 0x1646eea9e8079081U, 0xc3512540dabe5416U,
  0x1cd33ff5f201f136U, 0x4acb23154bdbb591U, 0x19d9fdffe2e4d648U, 0x3586f44dffbdd727U,
  0xf518e4da0df1c107U, 0x7ff24e19e1fd0445U, 0xd10c54fd0cd718edU, 0x161ddf2cf6cdf2f1U,
  0xf012d2b395ff7622U, 0x1d0baeff5beed114U, 0x20441cd5c7f17fcdU, 0x99c90eebdbe6f2d6U,
  0x10d91dc6eeeb0b5fU, 0x34e9e2059ff14054U, 0xf2c7e7f7a9277819U, 0xce3381dd33f716fcU,
  0xfbb706e80e6a4024U, 0xed8bfd7b4f0fcd6U, 0xf6bf0837dde6c50dU, 0x2df0ebefea1a0d3dU,
  0xf6c7f6ffcdf4edd6U, 0xa7fb3381a3f3564bU, 0x744fdfb12bc1a8e4U, 0x9374284161ddcb23U,
  0xe87fe3df201e4c6fU, 0x56fd20d6f949ed01U, 0x1bdd3a28141c4ce3U, 0x332a2b3ef8fa237fU,
  0x11f7d10632661bf4U, 0x462db445e0ca29dfU, 0x1538c44717e5e5f5U, 0x8273ff3ddf4ed14U,
  0xfbe61de52ef702e0U, 0xf5082d3ddbd2c3f8U, 0xac8750ec2bc9a57fU, 0x8876c1051fe6f1c1U,
  0xd0d3081511ca2b2aU, 0x7f06caf3afe69519U, 0x4bc8e6211b0ef6eaU, 0xfb3fe713fae6f9deU,
  0x270412d31af1e4caU, 0x14530eef1feefa2cU, 0x8a58e854be91fc5fU, 0x492dc9176c3e7154U,
  0xf4daa5afd8bb37e2U, 0x1d0a0bd8d51208deU, 0xdff4b90907d4367fU, 0x5d6cd7eec6bc2d40U,
  0x1518024c812ff1baU, 0x87297e861de4bff3U, 0x355f3690c1e8c87U, 0xde06aba113308ccaU,
  0xf3121dd4f5eabf02U, 0xdb40f19d9e59517fU, 0xe6dda741f61deb65U, 0xe1f2f6d94a0e94adU,
  0xaee526e93139e3f5U, 0xba08cda75481b5b9U, 0xcfe1e50930faca2dU, 0xc3948258a82fe696U,
  0x8e1e43280a19db5dU, 0x750ea1264ad7b996U, 0xe89ebade066bbac8U, 0x5fc134d7bea4bfcaU,
  0xedd3bad2fad90ee0U, 0x2cc4dc4a1bebe7cfU, 0xc950321b8145e042U, 0x21cedff115f02b21U,
  0x1412fe08dad661e1U, 0x17ebfae23f1b1940U, 0xb61633f11f90cc1cU, 0x32e1ec81cc714c40U,
  0xc31d017f19c426e6U, 0x3e99ce3efcd3225U, 0x6b80dd3ebc6efc1U, 0xf9d19ef818d6df4bU,
  0xee28093fe083ff3eU, 0x11d9f43f8134f9eaU, 0x40edfe27b4df13b9U, 0x30cfe1e98225165eU,
  0xc6d9143616a49ff4U, 0xf8f73509dcdbfbcfU, 0xc790906484bddf0U, 0x2e22ea8d161e3fecU,
  0x4ce12c2424b44d81U, 0x117b173bdf4bd427U, 0xd2240de00fcaf8e8U, 0xf82ecd13f91d3f1eU,
  0xf51716f2fe281b14U, 0x15e0ad38e63df346U, 0xd30042491981a52eU, 0x230cd212f6cef32fU,
  0x4e736706e57ffae9U, 0xec95e7584ae91108U, 0x2a412ace17a0a528U, 0xe0123928ea3cf00dU,
  0x3ffa53b5de12cd14U, 0x81f3a3d50ca4ee1eU, 0xcef9f3e7b1d40e0dU, 0xfced10dd17ffe403U,
  0x14eff2f4ca103cddU, 0x4211b5ee31cd25d7U, 0x7ef581c60b0ff413U, 0xf20d8bd53d5e2a7U,
  0xb5fa0ff76d15282aU, 0x1f4eecffb212337U, 0x411ed2e41d272bf7U, 0x13fd09e2f6173125U,
  0x71d21e4daca98142U, 0x20d58a2e07330eebU, 0xeb4aff2435134067U, 0xc1911200d01032c5U,
  0x1022c3ffb02f0923U, 0xfe203f0c797e18cbU, 0xf92beee88c2b53c9U, 0xa92818074c445c0fU,
  0xa17fdee15db296b0U, 0xe3f91c00112edcdeU, 0xf534d20226e1ee10U, 0x1bfc0f14eaef550cU,
  0xccfdd946dac511ffU, 0xb411681f3078ee2U, 0xcfe4da902c46a8d5U, 0xb8d2b8c2e627dc32U,
  0x665c5afd08f081e6U, 0x23532179b3d0d935U, 0xfaf5e4f0182e3e3cU, 0xd02a022401a82c7fU,
  0x124f1e17ffccd0f5U, 0xa8e7fd110ee1673bU, 0x47d62ced32281ef7U, 0x3a5e34521ff9d2eeU,
  0xfb2ff6def4c4e556U, 0x31ef3b544931c681U, 0xea0440371115ea25U, 0xa67dec5f262711f4U,
  0xd50fe728dff8db22U, 0x3170ded1c4a1f29U, 0x29bd0ceac21f3e1U, 0x9b2acb3e17b74c28U,
  0x7fac5fca00f770a8U, 0xdecbcb6834f8744eU, 0x210125d8e5cd28caU, 0x32f74a20c0cdc7ebU,
  0xf004d11e18eb1535U, 0xb824ff11032e1247U, 0xf2dc187fd0bffd1bU, 0x14143e0a5281e803U,
  0x90f8fd74f0bec09fU, 0x495779c3ffad150aU, 0xd110f044c82ac2a1U, 0x339fc210d7fcf397U,
  0xc6ccc9639743cfd9U, 0xffdb1182a42e593dU, 0x37edb23f1adf9d57U, 0x2a9efe04e50104f6U,
  0xff7f583ad703ec1eU, 0x52bebe8393fc549U, 0xda62da42392dfb19U, 0xd244f4f4b2bded7fU,
  0x9a0ad21f050df11cU, 0x2fb8efc4d111a8c3U, 0x8c013eefed2bfe9U, 0x5dde013ec719a3e9U,
  0x1fdfe532a439b66U, 0xd87f02ca10150f3fU, 0xfa2fbaf90daa4ccfU, 0x22511ae3cacdc5f7U,
  0x86a9b19ec05667fU, 0x2509d94ea4e9cec1U, 0xfbcdd2d43203d7d5U, 0x9b153a02b649d15cU,
  0xc50650e6c9c62b37U, 0x7fedf1aa5bccdeffU, 0xe90e78de4cd54c1aU, 0xccfd3716e12be9bfU,
  0xf6221fa4e416db16U, 0xf302e7ff6681ef4dU, 0xe2fde449c0c29814U, 0x2ce068089ad064baU,
  0xe404cbf3f7dd2637U, 0xf5232ad3cf29092cU, 0x40bbf68347c62a1cU, 0x5705e317811fe4f2U,
  0x1930fd0fd2624dc9U, 0xdf1f28a5e0efe045U, 0xdccec2d510fdb551U, 0x101e0d40e11251e3U,
  0xc4f4ebe74d323834U, 0xb24b0ae1201de6d5U, 0x2e2268c5f8fbd011U, 0x21fce4cf7fa9c33eU,
  0x1c222d1cde27f00bU, 0xbc0c12175aec1942U, 0xf49fbe918defc17U, 0xb718b67f05b1e537U,
  0xf6fb6e31b21dc0feU, 0xd791521d03e4d14U, 0xb9e4efd4182d7cdaU, 0x32ca1ab04281198dU,
  0xef708f2ce27ca2fU, 0x2cfac91c0d2fe03aU, 0xbff3d11edaaefe2dU, 0x2f63ee1cdc2537d6U,
  0x1c483d12e2bb0bcaU, 0xf81e28c916060b5eU, 0x538cb97fe024483aU, 0x30a1ead0c8fd2b61U,
  0x16293def7ff4e30eU, 0x37dc3bdaf2c42310U, 0x8d59d623f1babeefU, 0x3e3c43b9c03cf92fU,
  0x79f6e1d0cbd7d6cfU, 0x4ba2b4fd32f64016U, 0x6818d929a06a1edfU, 0x2204e4e996f8a817U,
  0x7ffccf3001d10cd9U, 0x4eb9dab659c0c6d0U, 0xb4ef0ec133aa2401U, 0xc7d406df591dbf7eU,
  0x4417eca3073d7fd5U, 0x1e475602357005a1U, 0x102bdc51ba0e1322U, 0x15cf2f3ba675dedcU,
  0x2dcdfd3423c9ef0eU, 0x697d1e5b3a6cb148U, 0xeb816326b52d732dU, 0x32ff24f5e108f41bU,
  0x4eb01335b06f2fd0U, 0x5f100ef1558238eU, 0xcdefe6004981d7c1U, 0x6de57daca0f0f00U,
  0xcbb00113bffb81f2U, 0x41e3e9ffceec122aU, 0x8e5eb103b14bb57U, 0x16fb100bef15fdfbU,
  0x2440904f00b00f0U, 0x44ca0edb14fbe6U, 0x2c1c0bc9ef337c1U, 0x58cd7fc860d632f2U,
  0x2f5f1e1f0d1c0d11U, 0x28180afd35c99df1U, 0x12f219ab547fd534U, 0xf7b0b605f1e93722U,
  0x2f15fab7f40302d5U, 0x16fa1b19ac240526U, 0xf62504d320fcb006U, 0x48371daf2708ed3aU,
  0xa52a004456f2ed12U, 0xc57f9d011a2b061dU, 0x22c3e0c9cdd50d38U, 0x32f92cddd10fcdd1U,
  0x2e7fe0fc349fbefdU, 0x2d4097e7f6020019U, 0xe2beb3be00afcd6U, 0xf61822e9362dc7f4U,
  0xde1af61d020e0cc6U, 0xd022225a06ba2e10U, 0x1225d1ee0c2f26f8U, 0x21f57ff05314fd1cU,
  0xe4fe27f0c6271436U, 0x261f27ec13efd42bU, 0xb2d1f0e2d22bf8f4U, 0x11a913812f08b1dbU,
  0xa629aa0a9afc172dU, 0xf8cbd9d41bf31be5U, 0x131127020818fffbU, 0x1b3000007efU,
  0xace00000217U, 0xffffe43f000003e7U, 0xffffefd3ffffe9d3U, 0x1154fffff5dcU,
  0x26b000013fcU, 0xb39fffff415U, 0xfffffb3affffeb99U, 0xffffe678ffffe94dU,
  0xfffffa35ffffe857U, 0xfffff8edffffe352U, 0xbad0000096fU, 0xfffff448ffffebb3U,
  0xffffdba4000004dfU, 0xfffff8c70000033dU, 0x3e7ffffea68U, 0xfffff50600000eebU,
  0xfffffab6fffff71bU, 0x553fffffc23U, 0xffffe7edffffec88U, 0xfffffd30fffff1c0U,
  0x6060000040dU, 0xffffed2cfffff329U, 0xfffff6bf000009a6U, 0x177fffffc02U,
  0xe0efffff7e8U, 0xfffff240ffffffadU, 0xb2effffe4bcU, 0xfffff9e5fffffe7cU,
  0xfffff4e200003faeU, 0xfffffceafffff999U, 0x1660000009b5U, 0x3a2fffff8f7U,
  0xfffff1f8000001cbU, 0xfffffd97fffff66fU, 0xfffff27dfffff6c2U, 0xffffef37000016e7U,
  0x1477ffffd3e0U, 0xfffffe91ffffcf29U, 0xffffe66dfffffb27U, 0xfffff4e700000b2bU,
  0x19bafffffe5fU, 0xfffff717ffffe964U, 0xfffffa9affffd1ccU, 0xd6f000008daU,
  0xfffffc43ffffe3f9U, 0xffffed6afffff418U, 0xffffe9eefffff990U, 0x1623ffffe96eU,
  0xdb3fffff903U, 0xfffffc9fffffeccaU, 0xffffeb93ffffe824U, 0xffffffd7fffff5c3U,
  0x8000000b57U, 0x5cfffffedf2U, 0xfffffecbfffffc91U, 0xf16fffff2faU,
  0x16cbfffffe4cU, 0xfffff86300001dfcU, 0xfffffac8ffffe688U, 0xffffff84000007f9U,
  0x719ffffed8aU, 0xffffe6d7ffffed7aU, 0xffffe03ffffff8a1U, 0x17b76c53ca6ec906U,
  0x7f0c5ed04f0dedf1U, 0xb0217f7f7fd77f12U, 0x164b810781811cf4U, 0x817fe8817fde8106U,
  0x7f47d5b0fca3d87fU, 0xce100107f2590d6U, 0x2d81f5180b7f7f60U, 0xe81bf7f48813841U,
  0x810f93c50167d653U, 0x7fc307282832e6edU, 0x5981be817f8abc46U, 0x81be0ec42b8d7f5cU,
  0x717f817f7f81817fU, 0x719d26d7167f7f81U, 0x5fe91d7fe9818b32U, 0x1412b3381b73ce9U,
  0x2cff762b190b8141U, 0xc5c8e860226644d4U, 0xc97fa503aacb4917U, 0x876a38be7c2d8f1bU,
  0x725281ca7f9467e3U, 0x32baf3b831170d28U, 0x44c4aa7fed69724fU, 0x7f9555dfdfd2d77fU,
  0xb5c8aaa53b307c7eU, 0x71b281f80343d062U, 0xe1c848c0478102e3U, 0xd6bf1f444b845709U,
  0xff08ab1c5fbbfc72U, 0x7cb8d286ff5d099eU, 0x25d0d1377fff9500U, 0x7f7fc0e7a8bc0bd5U,
  0xe3537f7f7fd9367fU, 0xfcddb141d87fd7a1U, 0x42df523c0f60a01U, 0xeefd4d0a45e2960cU,
  0xd39beef42a47fa8U, 0xfc28bd81df427334U, 0x14dc8154cdf11c7fU, 0x18e6589b8108382cU,
  0x409e0ba9dfc77f2dU, 0x572e97c6ad46a07fU, 0x81adf5d00ce40f1eU, 0xa03a3152e19817f4U,
  0x81e134f2e8cc5063U, 0x2df0b0d73360c4a0U, 0x3744c5a76517018aU, 0x771752f1581281b2U,
  0xc77f073549117855U, 0x711ec91bdb28ae81U, 0x47f70747e730edc7U, 0x543bff2b4d9c88b3U,
  0xe8af3648482a0cdeU, 0xe03991b4aa7f72ccU, 0x8df7b34e27aadf68U, 0xb5097fbe86f25864U,
  0x35814c81819b50d8U, 0x57215abb5d79c7cU, 0x12e481f79ce0335fU, 0xd67f5d7f81a0c0b9U,
  0xb7c754f996d73cafU, 0x1c7fb829f55ad4d4U, 0x6761b2a12a284e81U, 0x15157f7f4a7f8481U,
  0xba67e8bbfc7f41e9U, 0x7f7fe32215e5ade3U, 0x7ff72b7f9de98181U, 0x7a2e813bc3819081U,
  0xbe811a7f347fce48U, 0x817f8105c0567f81U, 0x8133dd457f8de41dU, 0xa135372bf2e17f62U,
  0x19c47fcda6817881U, 0x997f47818181811bU, 0xc0ea42f9b077f7fU, 0xae5c7fab8b81ea81U,
  0x8c305bf4ab1914b8U, 0x8148817f81f3b217U, 0x7f7f812918647fdaU, 0x0U,
  0x0U, 0x0U, 0x0U, 0x0U,
  0x0U, 0x0U, 0x0U, 0x0U,
  0x0U, 0x0U, 0x0U, 0x0U,
  0x0U, 0x0U, 0x0U, 0x0U,
  0x0U, 0x0U, 0x0U, 0x0U,
  0x0U, 0x0U, 0x0U, 0x0U,
  0x0U, 0x0U, 0x0U, 0x0U,
  0x0U, 0x0U, 0x0U, 0x0U,
  0x0U, 0x0U, 0x0U, 0x0U,
  0x0U, 0x0U, 0x0U, 0x0U,
  0x0U, 0x0U, 0x0U, 0x0U,
  0x0U, 0x0U, 0x0U, 0x0U,
  0x0U, 0x0U, 0x0U, 0x0U,
  0x0U, 0x0U, 0x0U, 0x0U,
  0x0U, 0x0U, 0x0U, 0x0U,
  0x0U, 0x0U, 0x0U, 0xcbb10e2ef0d410d5U,
  0xff270b032e3413f4U, 0x23e5efeb0e033727U, 0x42fee0e32c0328f5U, 0xf4ff2ae501104c11U,
  0xe211b2eacf205c4U, 0xeb5052478c15b724U, 0x1c49f82a28e537a8U, 0x280059fd47bec943U,
  0xcc32ee070313041bU, 0x230b39017feb0ee5U, 0xfe0be1094c1ef923U, 0x1d35db2908192ff2U,
  0xfed133023cfc8e0aU, 0x12d62fd9ea5008b8U, 0x149af2d429d2cb71U, 0xfcdbfe321542714bU,
  0xd30be200cafcd712U, 0x8f92b19dcf34311U, 0xec0a20e80a04980bU, 0x207fc60c3821f51dU,
  0x3d0bc6e3f2f84153U, 0x1df1cde4e816f756U, 0xda3ad809bbd9e31cU, 0x4121bc48f943f708U,
  0x560011092205b70cU, 0xeae133d930143402U, 0xe23402f6e8f6e4f6U, 0xcacc061aeb1d2ae4U,
  0x1a042f2f06f9ad00U, 0xf9fade05d9e52bU, 0xe2f204a7da25b5c9U, 0x32ab64016d7cbecU,
  0x14cc1b173acbd8ffU, 0x3bc413fef2fd051aU, 0xd4b5d2d4cdf9253cU, 0xc5f20331939a5d33U,
  0xdc1d22262725f1f1U, 0xe832ebfe120918e1U, 0xf1150fbb10281e34U, 0xe5f015016306cdcdU,
  0x105432dfdfc7ca13U, 0xadfb031a030d6404U, 0x3b201405edc0e9f9U, 0x43d881b91ce117ffU,
  0x1504ebe542fa0722U, 0xebfe2fdff32315f1U, 0xd8d5423ed011f205U, 0xfeefd7391616d11bU,
  0x2e6320f0c552b15U, 0xe5300fe1e51139U, 0xceede92f132e00U, 0x7713d702d9fd3cc3U,
  0x18ac21a5f8f1d5f3U, 0x100100dec9fbc4f7U, 0xf1061d211c0e2cd9U, 0x39fa400e7ff1b1fbU,
  0xe11b00330121fec4U, 0xc834251840404d18U, 0x4b450442050acd35U, 0xf310ec206d70dfeU,
  0xea03051348c3b606U, 0x3dcd34111a0ffa01U, 0x90f1b0500111d22U, 0xb6c51c1ffde3210eU,
  0xe7c21429fd23f613U, 0xc0e5f3981a9adee6U, 0x1fc02c80e500dd3U, 0x2b34ae15cf20511eU,
  0x1c0afbf899eb13fbU, 0xcf28277ffa041612U, 0xda5a26020c3146f0U, 0x1bc5f5e2096426ceU,
  0xfce3081ffc0a0436U, 0x12e6def677df1eb8U, 0xec53bf9f56c5e4deU, 0x206b936def74bedU,
  0x94c9565c1e59ea29U, 0xf6f8f34c401e09d2U, 0x2dfae20851dafa78U, 0x171be7eb22f3f131U,
  0xf6dfe842e907ea40U, 0xe9d0d7b90f7527cbU, 0xf0340d3207cbc4ddU, 0xe4de16f5272210a6U,
  0x577b05ee61e126e7U, 0xedea4820f6b2a6c8U, 0xb754dbc817bdf0b5U, 0xe4ea280bd8fefb30U,
  0x45b9989d5908dd81U, 0xa11e90419a0b306U, 0xd0ca10e6ffcbb6dfU, 0xe41ee543d74d11d4U,
  0x3037c900f3233f0cU, 0x21f1bf4658042fe0U, 0xe66d3b6e7a54e39U, 0x440eafeabbdf1802U,
  0x17e6edede618f4fcU, 0x3cec30191894075fU, 0xd8da0ce341ec24efU, 0x19fb37e8e9f720e6U,
  0x11f143cd14eae3d6U, 0xf93c35fab62efbe4U, 0xe6bf05d5fde6fcfeU, 0x1fbf30f87f20d6daU,
  0x1e003b10d70fcfU, 0xdced0ce8e23c63ebU, 0x7a300c3af0f20601U, 0x3becb7bad638b314U,
  0xfee8f91561ea0e2fU, 0x2c01fa6d310f0dbU, 0x2fff0b131cdcfe1fU, 0xcc204a37e019fa08U,
  0x1aacfdedbbdc1007U, 0x2d4f5dafbdd13d0U, 0x708f0b8eb3a06f4U, 0xcb41df1af11e1642U,
  0xfcd5f710b2f3fcebU, 0x401b0551c119f602U, 0xc8567ede16f1faf5U, 0xe8f4100ade11fffeU,
  0xb2f32be00e6e622U, 0x2719dee249141aa2U, 0x176efc8fad8d4a5U, 0x1809f2f7d2140ce3U,
  0x1f51c364d7fdebcU, 0xe13fdc3a2d100dc3U, 0x11f5cb1ef2e60c25U, 0x29aeed1a1b55ecb3U,
  0x3aea28d601ff3b4eU, 0x72b2ed5178c5b59U, 0xdfcabfb447de3601U, 0x3ddc65e92145d3e6U,
  0x1eaaec162f9dd20dU, 0xbf1444e2da02ef6cU, 0x1aef17eacffdf1c2U, 0xe203351d464fade4U,
  0x212becfc2f1ee6ddU, 0xaa0ebe35da3b6724U, 0x4e050cfddee8106eU, 0x3543c3970d210c23U,
  0xc2de1d69c64432f6U, 0x15bb69fb36fc7f1bU, 0xceb01b7cd09c152U, 0x171f09f70d050a0aU,
  0x4da2cbdc04e0daa9U, 0x63ec30603b9e92cU, 0x35cb41056c29dc49U, 0xddb93ecf2913d706U,
  0xedf5d61e1cfa1cdfU, 0x7e152d4ca0c7030U, 0xf5343e1019dad308U, 0x40d92119d4e07031U,
  0x4e30e248e706ee81U, 0xf71103ef1c0fad1bU, 0xb0c18bc29e4d482U, 0xefdd1de7fd2afeceU,
  0xfe8d9f3df361e47U, 0x2208e1e22e09f8e7U, 0x206d3d888fb1b41U, 0xd709e92af1d5dd3cU,
  0x9be80e04f905f9bfU, 0x3eff20846d7fdf0U, 0x1524f0d941f0a517U, 0x7ff8381add19dc03U,
  0xaf46f1e2dd0494acU, 0xf4c6f73fe7f1e401U, 0xeaf53ee4f519ee11U, 0xda1ee8e02bf4f90fU,
  0xf1d6170bda392c19U, 0x8cf4ad0d0ce61614U, 0x1bfccafbececc5e8U, 0xdaf925ebc6ee1baaU,
  0xc2033c05a3cedad6U, 0xfbc42ce70da93ec5U, 0xcf1aff070904f4e9U, 0xc91e02fefc107ffeU,
  0x3282cd5f9e927e0U, 0xeb041f0dc70a2cfdU, 0xb418e0f60109bd19U, 0x3af637fb0631f0U,
  0xfa0de0da2c010726U, 0x4722eceae205ce40U, 0x51e101f9c929f0faU, 0x2f35f719beea20fdU,
  0x14372cf01bfa03ffU, 0xf7173ef4f90c30f8U, 0xe8e2e7f5ed27b6fcU, 0xd301f301db27e8e8U,
  0xec392bfcc4f9fddfU, 0x1cfa16efd0ed1400U, 0x14fdfacee01efe23U, 0x5c32da810def1b19U,
  0x333ee448e7fbff44U, 0xfbe1eef103d624b8U, 0x407c721fedcb9e3U, 0x263416b11513d06aU,
  0x282cd2f9d410ebbcU, 0x9deaa26ef8d6f4b0U, 0x1be2d71e44f6cc02U, 0x743dc9feeac5ef5aU,
  0x3afdc1adb5300e0fU, 0x35042ae621d3c0ecU, 0x2007d9363ad76d58U, 0xbb5e4d753b9d7e0U,
  0xfe6068db3002cefU, 0x19f5ded4180e4767U, 0x9003fa37f0e64104U, 0x17f5e906fac00030U,
  0x27e3bc1d3ad61402U, 0xf32ce3061b1b4b0eU, 0xe513240146cd1c47U, 0xbddb02c97fe7cbf8U,
  0xfbeff9d2ba020faaU, 0xa2c5b0e065fdce7U, 0x24ff60f806e41913U, 0x19304405032b14ebU,
  0xcce719ecd3f61334U, 0x183a0d2329f762a5U, 0x29eefe1bfe4b35c2U, 0xe3a8a84e084ff5f1U,
  0x3dd9e92134d11e23U, 0x8caca2851ef3b41U, 0xe5f4c40ef2e6d03eU, 0xe595dccc2e1f26cdU,
  0xcd3b002cd204162eU, 0x364a07bcd3d0fd40U, 0xeff6321d3e290e13U, 0xe2f415ff2deedf29U,
  0x710a2001fd4e1698U, 0xa9401500402af6f8U, 0xc2d629eee403f6c6U, 0xffde0ecbf243f4e4U,
  0xe708477fc9183148U, 0x7630da111b21e9ebU, 0x433c8e28e555fecbU, 0xe608e531eedff619U,
  0xcb006618f73ce722U, 0x2acafd1a09c4e142U, 0x6c9f7d11fe9180bU, 0xe0df2af733d5d7f4U,
  0xfc01162312e21033U, 0x2fbbe31a19e0bf3cU, 0x3cd83b2adc3514cdU, 0xbf32f62ccbdd46cfU,
  0x18c52e3cecdcdbd9U, 0x112a1f5ae835180eU, 0xcf231ef5cbd22310U, 0xdced43091fefd2d8U,
  0x200a3cdd0eff242cU, 0x300bef0819ce42afU, 0xe01a39fa30031df3U, 0x512cde7f2f81f01U,
  0xdc98d2e1461bb0baU, 0x2fd8e536d831e3e1U, 0x161015f53fe0837fU, 0xc33a11363a1b5a17U,
  0xf23adb92addf3bebU, 0xd91d1b0ead0401baU, 0x9e02d8d1061ec9dfU, 0xd35d466f5574cd8U,
  0xae1cb1ff3162a24U, 0x3fd9d43aed0bd704U, 0x1e152509c80a220eU, 0x3c01ef43d7c8d6bcU,
  0x40fd1c0048f7bbfdU, 0x1ba0551cde3809efU, 0xd1feb7ee0ae7ff7fU, 0xfa150b26ffc2253bU,
  0xe481e302bf9cb21U, 0xb86f0168b1ac3e11U, 0xd52d298719fdc105U, 0xe4ffddc319010323U,
  0x26e5e80c17edc7c2U, 0x1721febcfbfeebd1U, 0x4d4dfee212fae02fU, 0xd822b4e3ca602223U,
  0x16f3092ef9dd25dcU, 0xcf62a46dae6e804U, 0xcb6d74d839c78303U, 0xc9f4e228da0d5730U,
  0x24ee56b6cce030d9U, 0x2415c7c972052fd9U, 0xf00f2aab01fe03c5U, 0x63faae44cf40ad0eU,
  0x1df80157117ffcd4U, 0xa4eca4f22be633cbU, 0xe21dc1bfcdf223fU, 0xdb4003eca1d5eb3aU,
  0xff00fdaa1f29fa6U, 0xbaec1a4bee0119feU, 0x12e02321d5ede13aU, 0xf003fdf6ee0c1c11U,
  0xdbd1dcdfcfacdcd3U, 0xd910122e080e573eU, 0xf74c264ee581f602U, 0xcd15f6b7e4012539U,
  0x2bbbc32ae7db9799U, 0xf3334eeb0fbfd1aaU, 0xf32212ff31da3e21U, 0xf128b005300b0becU,
  0xfce39bfe1bdfe626U, 0x1afab2b40ce91cbdU, 0xd2e40733b73cf912U, 0xb8da0b84c089cc1aU,
  0x5bfd43f8a79dce12U, 0x172c1cf04605fefbU, 0x6d7f5f4f6fcd85cU, 0x49f9430f2e3dfb16U,
  0xe037ecd40a02ac9eU, 0xe3d4d522eaf42ce6U, 0x170822f91b003808U, 0xfdecdb9f2aca3bf2U,
  0xb3d181d0d357f9eeU, 0xb7fad911ee9bfc0cU, 0x6efe16f2f4ffdf10U, 0xfebff7d15f080aeeU,
  0xf406d3c4cad4ffd8U, 0xf8e1ff007fd03e25U, 0xd5b4184712efe60eU, 0xf3d1180052011c2dU,
  0xb75303d3f7ee49a0U, 0x29eb27c4eee014e4U, 0xc320159ceb571de3U, 0xdbb1fe2830f3f417U,
  0x2ec704f51d56eb0cU, 0xce1081d1405f0U, 0x1c2eddece0ee92f9U, 0x1f9fb18f418e0baU,
  0x1520120b344eda09U, 0x917f70d1cfef7f9U, 0xe4fa11810b05171aU, 0x23d7d719c709b55eU,
  0x83d043d1d1ae6c8U, 0xd32ee8f8efb1fe1aU, 0x2b2215f110ede21bU, 0xeada1f9fe00cf121U,
  0xed0fd0ff2e3b306U, 0x1d1b271508becce4U, 0x4ce0825e4f5dff1U, 0x61fecd4f5f4c6eaU,
  0x8f44be02f71afdf7U, 0x3de80f554842a611U, 0xd7e7e5fc09f30bc8U, 0xe353f2bebe032fdeU,
  0x3549382cec81fbcbU, 0x991526f421da1922U, 0x3fc822c5e119eb30U, 0xceb7d83a1723f13bU,
  0xb592ed05cb1909f1U, 0x9339cbf015212e0U, 0xcc2addcd21df13edU, 0x11d60bfd1f22080fU,
  0xb70cbbdfe6ecae92U, 0xad0aeff4c8c5f907U, 0xd906150b19ef3511U, 0x611cb3681092311U,
  0xf4bdeef0b13e2605U, 0xf7cc1c222c172ef3U, 0xa162fd60a22e7c7U, 0xee2cafded44df3f8U,
  0x2c35151836d63f15U, 0x2bb1c315fa04e4c4U, 0x322f7b615ce1715U, 0x1809c9fefc15b706U,
  0xfe151d4edb52232aU, 0xc011fc0affd10cc7U, 0x3a1001f613c9e529U, 0x4d1ed17e72d1d06U,
  0x4e4c8faf72b3612U, 0xddff03f3ce020565U, 0xeeee8edfa02f50eU, 0x9de0a19f1d946d0U,
  0x2f0b07f7e80a0221U, 0xff122adff6ab2908U, 0xa21f9fcdc0fe7ddU, 0xfbf306187f370e0cU,
  0xd2e9c8e4de43a60aU, 0x22facc3fd5db2fcfU, 0x1af8f835ea0e1003U, 0xecf8ddb0d42adb26U,
  0x27361414e11408d3U, 0xed04141527c411d4U, 0xfee7ff1620124e22U, 0xe5c1ebd63f0a2ff4U,
  0xece0d0dac0eddbd4U, 0x13c7efd7da04fa06U, 0xd301f2f61be6c54eU, 0xef2706fa38f8ff40U,
  0x38cee4ddc220022fU, 0x2ef11509efd0fd4fU, 0xfdff3c81ebbb48U, 0x1d12e248072dd8fbU,
  0xf61ff5f5541fe6daU, 0xd04f6e62f361fe0U, 0x9ff72016e33d03e6U, 0xf71e095a10e8d300U,
  0xd6bff1e20ce5e9d5U, 0xd4cefbd317ddc8cfU, 0xb5e0fc21f101d7d2U, 0xdff7de143141210aU,
  0xb796fbda21f126a6U, 0xe9dc02d3cd623406U, 0xca4deeec0bff2310U, 0x141fb7dda0eefa2dU,
  0x28fce8e8ead41c1aU, 0x73417bce50cc06eU, 0xdf69c2e88fc3160dU, 0xd2adc323023088aU,
  0xfa3308035d47dcd0U, 0x1110de294e247fffU, 0xba32fcebe0fe3ac9U, 0xd1640233f7cefedeU,
  0x37f8e40c14f8e4b0U, 0x181ecf18d3fde6f8U, 0xe5b24d01e7f10e08U, 0xf3fd51c9bdecdf13U,
  0xaca0a0cfd3c2405U, 0x30c7d47f2f5c0305U, 0x37be304882dbf2eaU, 0xfc451b43a5fe340dU,
  0xf3d840f814f8e3f8U, 0xe350f51cf9f52c16U, 0xcd98102af10f26a8U, 0xea3935eeada7ef32U,
  0x40c6fe3a03e2006dU, 0xfe63ea1cdfe00fd0U, 0xd4a5cfd2e1eb4229U, 0xd0b728f4cc69e3d9U,
  0xf314de20188318f2U, 0xfc28aa19cc3853e5U, 0x3a190c1d3450141aU, 0x2ef2f9dcbc44b51eU,
  0xf51020e22d0d3fecU, 0x1feb1efeea2316a9U, 0xe6efd4df2d04261fU, 0xe6abc938661f03c8U,
  0x53cf31b931f43e63U, 0xe9d246d7c9fadef7U, 0x4334fbdd193d1adbU, 0xf3df2d0b3810c2fdU,
  0xbe07e80e33fb291fU, 0xc7e8ca2fc92dfb1dU, 0xd413df4791002803U, 0xd5fbf6c5ec4a0c36U,
  0xecb7ca517f4348d4U, 0x1ea86f1118fb4fcdU, 0x3102d9c6d9e90309U, 0xa50f1f3020a333dU,
  0xff02bcfac7d2d2cbU, 0x99e91934fd07d22eU, 0xbc3601eff4e6054bU, 0xc81bfc1ddddff1eeU,
  0xbaeced08381f3941U, 0xfea2fad049ed31f8U, 0x3810f9a6fe20c0f4U, 0xc728f1e9ebc81912U,
  0x8c726f402e8d625U, 0xacd91a09eeffd12cU, 0xfd0e35aae9e1f0f7U, 0x29e81b0ce13d2a1fU,
  0xe71fc215f50427f1U, 0xc60111d1e507d617U, 0x1147005f54e7fc4U, 0x48d6eeb328dec9d5U,
  0xd848f0eefb0d439cU, 0x132e5a15a918691cU, 0xd28aafc08f12104U, 0xf3dcef5300c125b0U,
  0x3aa1e3010ad823efU, 0xfd372308ac05f3e5U, 0xc932b724e7293a16U, 0xca9f1d7fbcd9f4fcU,
  0x94600f47cc3906d4U, 0x14e24806ec7eb803U, 0xe43fd703d1031cefU, 0x75e5ddd3d32ff55dU,
  0x28e4f02a4446009dU, 0xe011b461720f014U, 0x11f76319400acde9U, 0x63bf3f1e4cc0f17U,
  0x91e09fd0a1de10fU, 0xd6d41cf638d8dbf1U, 0xe704bd25f801f9feU, 0xd3d70522bbf218U,
  0x191bfa430e42e3c5U, 0x2fc1bdf7f21d8d5U, 0x3c9c8182338ebf9U, 0x90df606f1e3c9d5U,
  0x20ed122935de2214U, 0xd5f1f7cae206bafdU, 0xf6af05200622fb41U, 0x1cd521282831edeeU,
  0x481de4d7f827f208U, 0xa71208caf62fe714U, 0x2d1e17df021132ecU, 0xcc1523c1e2d0101dU,
  0xd7f8d34cf6cde91aU, 0xbaf3bf33f8e9d6d1U, 0xf6e7b2fadaf81deaU, 0xe5f5d35fa1d10e19U,
  0x4dde01293919f824U, 0xfaadf73b155523c6U, 0xbe131d2f00fbed25U, 0x17c6c6ef101ae8dbU,
  0x52c56c05071332fcU, 0x240cfeec06cd3881U, 0x145bd2fb3adb0c25U, 0x2426c2ba29b6d42fU,
  0xf9e12e565b23e5cdU, 0xfd171cf4d3c5d91eU, 0xfef0af11b000318U, 0xcfdd1ff1070a5547U,
  0x9f313e8b28108dfU, 0xf99d1ffaf70e1d0fU, 0xb2f4e8caf3bbd320U, 0x30f4f7e20e17dd08U,
  0xda34f1f6e44a0b27U, 0x2ce600e4fd06ef28U, 0x35f1fc029717ecf0U, 0x13bb35fbf32b03U,
  0xed16eff847f7fa18U, 0xeeeb07e7f6fd0805U, 0xf2146f50711ecb9U, 0xbbb07ee3a0912e3U,
  0x23f6cee1ecf7021aU, 0xd201f7c703fd04edU, 0xcce1ffd43bf10b24U, 0xfc52bb7e70fdef0U,
  0xf5f9f6d4c505bd89U, 0x28925b06961264ecU, 0x3bc4061e6f5168faU, 0xcc25eb2c3c181800U,
  0xd4a3e3f4073e31dbU, 0xdebdd21029e823daU, 0x3167dc3edee15bf5U, 0x182f8e5f14321fbU,
  0xf5acdd57fff9a3c4U, 0x9261e1af92fdeacU, 0xe201d0e36c50ceaU, 0x37f0d1fff8452562U,
  0x2cb01ebe0df8eea4U, 0xee22d332f62c20fbU, 0xea7f1604f9eadfU, 0x101a2a053dab7f57U,
  0xef1110a602ff1aceU, 0x290ddd0be40fdcfdU, 0x19e316f905e4711bU, 0x13ff0f5ab2ff1ee7U,
  0x1cd8d8be18e2c015U, 0x1305c315f7c8f613U, 0x14560dfd032511ffU, 0x8d4f347e7cbcbd8U,
  0x26e5e101f21ae73fU, 0xeef44936e5bdd85cU, 0xf4e2e5ea411cb9fcU, 0xc4f832fe07fd2944U,
  0x3ffc35f27fe91deeU, 0x20282b2123bc14f5U, 0xece759fd14d4dfbdU, 0x5bd6152b3890f7f1U,
  0x3cd985252fe534fbU, 0xcc44aff04671cdbeU, 0x35ff3a3f465354e6U, 0xe4ea36c1e602dfbeU,
  0xb536e54b6beee63eU, 0xe6b20fd6dd812d36U, 0xfc34cda79bdff21bU, 0x4aac13393e15380cU,
  0xf907f7c7b778c09dU, 0x16d941da2c14dbc7U, 0x925c0f56302eb2fdU, 0xd4214fc8eac54937U,
  0x3d192bba07b32419U, 0xde14d1f21d99dd3bU, 0x234af7d9162854d8U, 0x25f5f3090d31f54eU,
  0xe6b2a8a0f327ddc2U, 0x98fece1307e21df6U, 0x8f2d406f6e242b7U, 0xd023f1f118df231aU,
  0x2a35241dfa3b3a1bU, 0xf8d242095e154bf8U, 0x76c6f64207fe9a2fU, 0x5b47b02cfcfa9bdbU,
  0x43b54d02c204d402U, 0x28d830e21de427baU, 0x6c422da480a29e9U, 0x5115c5ecfd28fd09U,
  0x2b162c4d3bdbdf5fU, 0x94320541cee5cf03U, 0xc3ac7fc92be7cae1U, 0xcaf833e8d9ead827U,
  0x10fddc42f65aa0e4U, 0xf242b92923e0f2f1U, 0xf903511ce64d54e6U, 0x92a05b1245ee041U,
  0x9d1eea3dff232395U, 0x17032e624de6bdf4U, 0xea0129e321e4d465U, 0xeb6de4d01719d2beU,
  0x6613f80937b1d6d4U, 0xa80701f5f5c4ef38U, 0x24f05ccde40ef035U, 0x812235553413f1b8U,
  0xf3bc7bdcdc2f745U, 0x46120bd043da3e32U, 0xdfc9a7dbfb58feffU, 0x11eac7c5fab12e5eU,
  0x1a542e309f3ff40U, 0x31f9bc553915f9d8U, 0xef220f26db1ee2abU, 0xc12e4edd1c18b7ffU,
  0x4834f5c9110e30a9U, 0xcbdcf00414f7d2e4U, 0xbeec56e8ed0219ddU, 0xf7e059ca0e8dd2b8U,
  0x7fb1e34d0ed7130bU, 0x56d4c748fa07500aU, 0xffda0bce28fcca19U, 0xad1a2d04fb2af9f0U,
  0xb31b29c0bb192940U, 0x32f0a2bbf70b2031U, 0xf5244b0a1f83e811U, 0x27d4dd29e3ead721U,
  0xe00b18291205fa50U, 0x1aeee7a167c8fed8U, 0x1319bad7301427e7U, 0xe7fcfb2cb1182c1bU,
  0xeddffb51a1d3ec1fU, 0xe3ff317f01f62b09U, 0xcf1a41cbe9f1fa58U, 0xf7fd9b4fe445132bU,
  0xfa1a04d2e3cff7f2U, 0x26ddb8e3e5fbbfe0U, 0xd92bedfc2cbfcff9U, 0xc42bfff0cf60ab9U,
  0x1fc724153f2cfbb5U, 0xbe33092f31f1d2efU, 0x7ce4f12d38dcb84eU, 0x3f410bfc4af8ae04U,
  0x69c972c351929fbU, 0xe2ae0f6fb282ab3U, 0x3139b19d2099d514U, 0xd7e9c90e56f4d3ffU,
  0x332f15e607ea5d0eU, 0x7d4eee0aff504f4U, 0x962fa3514c31fc0U, 0x34e91203fe34f049U,
  0x24b4190548e1f1c4U, 0x25191638387fd2fcU, 0xfd20e7ae3efda3ddU, 0x2947c72afd07010fU,
  0x9252c21175025f2U, 0xb1dbd3d3f5ccee6U, 0xca0707ddcfa43f06U, 0xf8d5df091ed72eb2U,
  0x3301283f3121f70bU, 0x4e24ed1d210ecc3cU, 0x2d81371b0f36f7d9U, 0x311ec4ab2db47f2U,
  0xddec67f8d7c293c4U, 0x14326508dc0e1708U, 0xcff514ecbe1228ecU, 0x2bdc38085902fecdU,
  0xac21190704eb24edU, 0x343dd0e02af72507U, 0x221b24e706170d10U, 0x71f0bf30defffae9U,
  0xefc50fdc2603f5a5U, 0x3fe90039502528e3U, 0xfbd41117f6deb352U, 0x22fae5cb3bdd201bU,
  0x813cee0ff22c59e2U, 0x1efbcf1bd920e30cU, 0x9ee3e8d3e6cfd9deU, 0xbed1ebe32a1f04faU,
  0xc9ecfeb66be1b2b4U, 0x76df2d0b79fd21aU, 0xc1e1104d30cc6bcU, 0x2a2b06bee45006daU,
  0xc9fa29100ce8cd0dU, 0xbc18cdffc31842eaU, 0xfa4aba18b6ee16f0U, 0xf5fffb37eac1b3dbU,
  0x96c93c2717f9da35U, 0xae241c19c8fb05e0U, 0xe5ecffb8d8e2ec06U, 0xf108e92c231b25efU,
  0xb31f0b0bf83bf6baU, 0x6d0e2ce0f2f63421U, 0xf3d8d7c96739e91aU, 0xd3edab7addf4ebedU,
  0xced117fef0eeff10U, 0x320cdff5b2e5c9f0U, 0xf228ef05dd0cf800U, 0xebfad70a231ccc09U,
  0xecf63f1614422927U, 0x3ae41323ca7f36eaU, 0x2151ca315a05e7e6U, 0x23fd1bd9ccea2432U,
  0xdc0904212ae2debbU, 0xc4f3de2dd9cf49feU, 0x58fe37073099e1e9U, 0x2231f7e309352c15U,
  0xdcfa0896c03b11d0U, 0xd2f52825ccdc7ab6U, 0xb920bef7f4d7dd13U, 0xa32fdc70e0a1814U,
  0x4ceab5b3fd604057U, 0xfc10e9d70dfdc07cU, 0x7f07d005e8cce1e7U, 0xf84eb108070f00bfU,
  0x1be5df2adaf7e0c4U, 0xcc02fde4ae0f06f1U, 0xe0eafe18c207fe3dU, 0xdce02a023fc9ffU,
  0xfb08ebec33cfdc2bU, 0x66b16d5cb1d0202U, 0xf51305bb31f922b6U, 0xa002f8ff0face9f9U,
  0xdf94a1d40c6235aU, 0x43e6f9defeb6e216U, 0x18b214f209320f89U, 0xf4e3481de85a5ce6U,
  0xdff66d3afb94d58cU, 0xcc091b40cc26f905U, 0xed504a88aae320c1U, 0xdfc5090f4005e712U,
  0xf9f4b7270420f325U, 0x921afeae5190bd1U, 0x602e28b703092c47U, 0xccaae4adbd1e39b0U,
  0x1acf29d52d5c119cU, 0x1ac36ed0800d0caU, 0x18e7f20ade1a8b7fU, 0xf9c3c6f3e1a113dfU,
  0x2bea323128190623U, 0xd119e62334da9302U, 0xf1fef25dbd6dec4U, 0xecb81f19f4032af5U,
  0xdcda01ec09f50bcaU, 0xf435f74725e809e7U, 0x2ae8fc1e181e103fU, 0xbf2ff0dfc9eb1ef3U,
  0x350b2646c6b60b0aU, 0xade0d59bfa02adefU, 0xece40a7ffd46239dU, 0xf3fcf0403205f6e5U,
  0xc0e32cdddbe8e5b6U, 0xfde01f2004ce7eeU, 0xa55ceaeb2a5b10d5U, 0xe5fbf2e7320b224eU,
  0x2be6ab0106efcaecU, 0xacd5251209be09caU, 0x516d7dfe1ddf0faU, 0xc427e308031905f3U,
  0xc15e2e3d2d0f6f3U, 0xf718043820f13310U, 0x213b771506cc0009U, 0xb08f529e70f2813U,
  0x27b814f424e3f218U, 0x2216e72c2604e5U, 0x1830108117bbd4e8U, 0x912c926fdf1c0faU,
  0xe8e6be012d2ee7ebU, 0xed0705f8efc10ec2U, 0x2218c4e4f1b8ff35U, 0xf032dfe2bf174840U,
  0xf8c9d3d6550efc16U, 0xf65cef3a1ed8011eU, 0x32ae98f1ed1e6e7U, 0x1a177841fac4d91cU,
  0x1f92ff1747bf2e31U, 0xb0d5fe2edc01f342U, 0x3419f93a1e07b4f4U, 0x2f103108dac9de40U,
  0x1e211a36faeaf6dbU, 0x724a58eb450df354U, 0x3bfba4ecd1c250e6U, 0xea5627811a87f1dbU,
  0xc7bd421d1bfcd9e8U, 0x2df4ee04ded3ac6fU, 0xc5142ccd14fed59bU, 0xd173d1bc39d2322U,
  0x24a5172b11d82d19U, 0x29d4c5110de2db0dU, 0x4b1736bfd4502054U, 0xd8effcebf30c4a13U,
  0x4e47f35fe5cbcc4U, 0x3d9cf21414fa3dddU, 0xe3ee3df8de1df5f6U, 0xa3cb35bd0f2e41bdU,
  0x70d0900c4ea1035U, 0x36d1cd2bc6e14a23U, 0xfd19e0fefff0e02cU, 0x23d8f5f7f920feefU,
  0x22baf6f60cef37bdU, 0xd10dce1c141515b6U, 0x407fa6c46e1443bU, 0xb498f4f3030bffbfU,
  0xa41faddbe6dbdfc7U, 0xb4f70ec9e7d6f8cfU, 0xeb1e3ff028d87ebdU, 0xd34bfffbc91ff20bU,
  0xd9181a45131038d5U, 0xd03308e6451b05c3U, 0x1ef32ebffcd68103U, 0x3124012a01281e0eU,
  0x9007935ee21d427U, 0x1ec5de26eee519ebU, 0x19231e033809f218U, 0x48e9b334f3fadbdcU,
  0xe50975591ee834f4U, 0xe704105e18e7e014U, 0xc01115c314ac22ffU, 0xff336925a83f5329U,
  0x3df1b800cbddca16U, 0x18b4c23ccdc5f7b6U, 0xe0fef581f3fdcb15U, 0xcfd451b411fe54fU,
  0x94524d10f2745cbU, 0x33c2cf3d09b558d2U, 0x1ff6465d2bf00c05U, 0x111b01c1072a0b16U,
  0xc35debf31e6f5bdU, 0x37fffe2bd7df02ddU, 0xd81002b6ccbbf905U, 0xb9cb121921f18702U,
  0x3f2dbfb49ce2258U, 0x8e0b3002d17010bU, 0xe73bea464414bf15U, 0xfc3fce45d7dafc46U,
  0x33cf0be8fec8eb32U, 0x25bcefe5fdb905fbU, 0xf401f5a9dfffcf37U, 0x3611ebd038cbf544U,
  0xfb1df8e2ec10e1fcU, 0x48c9c6fc22e23ffeU, 0x620d25f1ee3cf5b1U, 0xec10bffb031beff2U,
  0xeb14e0ee160cd423U, 0x1a01ffd90205e7faU, 0xf9281a2dcbf1d8c6U, 0xea81050b56fdede4U,
  0xf2f1cc03ef1c191cU, 0x20bb38d84711442dU, 0x1ccd021ce45e09eaU, 0xe022b8e3e0cac3fcU,
  0x35ecfd0cf2e7ec2eU, 0xaf1fba2b18cad5e5U, 0x38b423e058eed5f8U, 0xd7df27c8f30bc764U,
  0xb112213603e235f9U, 0xc3eaf80024f131c9U, 0x315a1a191ab8f6ebU, 0xf619f8cc15dc280cU,
  0xe3c1c000e406eac0U, 0xf3ce1e5adfddd7f1U, 0xdf34b172f6de2271U, 0xb21cbace400fece2U,
  0x171420cfe3dc080cU, 0x59d5cc4401dbed7fU, 0xc3f74354d6ef1cffU, 0x2ce0f9faf4c9f6fdU,
  0xe3f015f1d60f11c9U, 0xcfeee514400bdee3U, 0x32a27ffb5837df3fU, 0xd702fff30f1fb701U,
  0xc336251df5f037f6U, 0xf3052e1d3be007e5U, 0x3e4334f9fddadcccU, 0x1fedc0dcfa29e4ecU,
  0x3ffd2f0ecddeb30dU, 0xed163f1aeaf6defaU, 0x940f92605fce207U, 0xfd201912260430feU,
  0x28fcf9f6cc000c11U, 0xc111f5f9cfd62750U, 0xfcfe1c0cd3e52b09U, 0xb2d535f83ff2c4efU,
  0xfb12e0f2bb133fdbU, 0xd425160bca34bd15U, 0x18df34e225da0e06U, 0x16180f2bb5521323U,
  0xca3457401014c5e5U, 0xed25f5ea19160f97U, 0xb7c517eb44bcf3e9U, 0xf108051d10bfdb30U,
  0xdc4dbff2f6f9f1cdU, 0xff16ff24c61b14c0U, 0x45dfaa030413fe38U, 0xfedbff01e57fe835U,
  0x21ad508e4cbdae8U, 0xe8ddbff91c041af3U, 0xdec7153614c7ec1aU, 0xacd0f34d035c27d4U,
  0x11fb010df2a7f4ceU, 0xdff22816fa0129e8U, 0xf8092d100bd5b728U, 0x4c1c8ac8b824bf42U,
  0xf220e7e9ef29f029U, 0x7f7142ff701286aU, 0xef1efb189cfb0957U, 0xd324ea53ed250781U,
  0x3d300b1a41e8f109U, 0xd7da47fdfbe8f340U, 0xf20f18fb0604b4ffU, 0xe90b32f223d42fd0U,
  0xf1fb02ebbd0e0edbU, 0xfae227f0080e01f2U, 0xdcf20cbe09e2e122U, 0xd83bfa11ad0edb3eU,
  0x4f3e5d6cbefc0c9U, 0xa5f6202539d8eeccU, 0x53f1f3eb0d1073c9U, 0xfc511446a25fe938U,
  0x9e0217cdd80f10efU, 0x4120003d46150ffaU, 0x1c2e1441282f1b0fU, 0xa6dd0eec8fb0b37U,
  0x2e0550fae8d50cf4U, 0x9ae12b8135b1dc3cU, 0xfd4e04c0f917afcdU, 0xec410fd5ec6c107U,
  0x1c031bdefeb8bdc9U, 0xc060d0f0c0a28fbU, 0x2eef113e6d3ef635U, 0xf4dc0d0451dedddbU,
  0xe524fed12234feb6U, 0xe7c819040906bc1aU, 0x15f21815ea0ae209U, 0xe3d0de5dc6e528e2U,
  0xdee02ff13194172bU, 0x18fbde0ef532cdc8U, 0xe8dfd60ff90d2724U, 0xfd390000b919deb4U,
  0x60ffc2d2fdd3e814U, 0x1f811405d739f6e1U, 0xf3cfd7e54cb61d01U, 0xeadcdaf9f7dffe0dU,
  0x1ffeb32624bff5deU, 0xed03d523cd0d0f5cU, 0xdcec28e7e326fc26U, 0xb595fc14d0bdd83aU,
  0x340f2a714aef0f25U, 0xf058faa3df04290eU, 0xdda0a61c5b640b01U, 0xe8b7090770ef00d8U,
  0x39bf5825efe61686U, 0xa60e69cee1321d29U, 0xe9f6ff3ce1020cf4U, 0x4301261b10f401e4U,
  0x5523f3ddccda075aU, 0x6450f6d81307049aU, 0xbd3dd21cb9203110U, 0x3ffd15dd004921f5U,
  0xf4abe12ed32d3581U, 0x36d2d73ce5fa0dc3U, 0xd9c00f27bcd6b340U, 0xcf4727deb3850340U,
  0x1abd25ec95dd81edU, 0xb4e1192811ff20d5U, 0x31ebf7fafcf5c604U, 0x57094d16d67b275cU,
  0xf75bf6c7d2f1ddaeU, 0xeeee275ef50813f7U, 0x30fd1f050be22c34U, 0xf43ddcbde5d320e7U,
  0x1e5ecfdaa3ec3e8U, 0x931c07e84ec0eed9U, 0x42fad624f707d6e7U, 0xee006c37d10deb8U,
  0xbc5a6f1a2aabbedU, 0xbd620f74ff733dfU, 0xb700da5231f5fa0aU, 0xf9e4e90759060641U,
  0x81050b37e60f4543U, 0x4541fa1ff8f118adU, 0x9c10ad7cc2bcdf1U, 0xb626f238134d09ceU,
  0x1f40e21715d2cb08U, 0xdfdc0f34cf23c613U, 0xc9f6e2110c14eb13U, 0x3607f8f9dfc7f53cU,
  0x18fd21d7f24d1b2dU, 0x61c503f22052da01U, 0xeb5517ff19eeb749U, 0xeafd1f38fac82b13U,
  0xe4f24beede0af7ecU, 0xf0be14b0d08fa01U, 0xf15b0aec05a0dabcU, 0x811535f4bedd1213U,
  0xd5f4ebdc0714fe12U, 0x1832ff4e0afe25e6U, 0xddcb1ef1ed0019d3U, 0x7f60c10130b07cfU,
  0xfbeb04ecc5b0efe1U, 0xb33eb50b917e60fU, 0xdf2c6015fa09242cU, 0x35c440ea24a1fbf3U,
  0x1f10eaef10f10ff7U, 0x3116721b0c190fd1U, 0x4e9d8272ce8cafdU, 0xd9120b10d5e9191aU,
  0xea0809d1410effe9U, 0x53f7fae3f10df80aU, 0x112a02f60e09bf34U, 0xe2ecef09bf10cf2bU,
  0xee693ceeaeecfc8U, 0xd6d0c508e1220516U, 0xe81a2af7e6f2170cU, 0xdfd6051aff0cd7e0U,
  0x230bd602e0e215f4U, 0xe3227f2b0508f619U, 0xf4005850405aac2U, 0xfb01eef0ee152301U,
  0x2cdae0f32aebeaccU, 0x11f5c715ebccfbcaU, 0xe2272f03010003cfU, 0xe4efec161f49b0fbU,
  0x2afb150fc65210dcU, 0x1102ff153deb40b3U, 0xd31ddcebcdec0005U, 0x17131305ed08f70cU,
  0xfaf8e0f60afff0ffU, 0x1c2021a0008051dU, 0xfd1ae2cffd0823c7U, 0xfcccfd1c14ebf339U,
  0xf142e9f017083e0dU, 0x130b370b181007f2U, 0xe10df203fbf304ceU, 0xde10d9130f0afffaU,
  0xe000071ff606fcfaU, 0xeddcef0c03140a25U, 0x1417eff3f6f01c0eU, 0xf00fcdcd247fd83fU,
  0x57fcfc0528002adeU, 0xeefa16e703f80a0dU, 0xc12291ff613d4f4U, 0x2b02d944e1eb1800U,
  0xdde1f5c4bc528fedU, 0x23414aa3f605d12aU, 0x3887040cecc01629U, 0xca2f65ff0bdf9318U,
  0xbe57081f5fe2c9e8U, 0xaffa13e8d31608c5U, 0xe23806322c92ea33U, 0xb71ee4aae0fdc6ebU,
  0xdccb812bac32bedeU, 0xe2c5e71511a11a10U, 0x4a18e32e76f2e12dU, 0xb25fdb538313818U,
  0xdaa1509eada331aU, 0xeeb9f91fdb981d23U, 0xe1c10612cdd92705U, 0xc9fee131101f4063U,
  0x4f63ad240cae6f3U, 0xfcff1c0023e68532U, 0xe6c153aa3317bef4U, 0x7f9e11010b0d00e2U,
  0xf54666fffef0f634U, 0x39e5200c17eaa054U, 0x1de9e8dfe345208bU, 0xacffdb173f02bfc2U,
  0x5a1cda01f9b4c021U, 0xe83601f91ae2660eU, 0xf7d82970d401c82aU, 0x13fe0afbbbc849feU,
  0xc849dad9df16e1feU, 0xb021aaefa0a49fbU, 0x2317e8e5c4f800eeU, 0x449ae91549e47fdfU,
  0x61aee3c311e0e3cU, 0xbd5e2db491413fcU, 0xe327ffeeb33ae311U, 0x8c1dd3de21fdea1bU,
  0x694a1236fa14172cU, 0xf512ffd2ceb74d21U, 0x35dbf4120900ea49U, 0x1c510d4cf9dce129U,
  0x3ff8b5cde4232110U, 0x4ab70e52eceacc36U, 0xb8e7210de6b30318U, 0xe1ff95e7cd9e1c5eU,
  0x3de1ddf631e7fa02U, 0xe130f80ccdf9edf6U, 0xd643ef9a8ef914acU, 0x2ee0ba21a131df2U,
  0xaef811c2b0ad0eeU, 0xccfe1630f015e5ebU, 0xfdfee70f41200cccU, 0xde8b06dd0cf4f91eU,
  0x1ee0ef2e29e607f6U, 0xdcd343f82ffff0dcU, 0x1323faee06c7e0e6U, 0x2a1ee021f91de8e8U,
  0xd5c534d80527e104U, 0x1bfef14802f4dfcbU, 0xfd230347ecf04dfaU, 0xf91ab3bb2b6ae32fU,
  0x21e4e41be33816fdU, 0x1be5000dfe1cf148U, 0xddf43bf1bef608d2U, 0x136e915e61506b7U,
  0x25e9399c003bd9f7U, 0xdbf270c9fdff0820U, 0x2c222337ee04df1dU, 0x152f223d8104ee9U,
  0x27eed1d61856170bU, 0xc806ccfbbbdff544U, 0xf7c60619280d2519U, 0xff0605f4be0cf7c9U,
  0x470adbf1f1f710c1U, 0xc9d67ff2dce32c22U, 0xfd1e24dbecc1cf19U, 0x3e07f04b1fbc0522U,
  0xf63c0eac0acff63bU, 0xc12122c1cda9e9d5U, 0x260335885ae33e2dU, 0xeb07fcf23a2125d5U,
  0xc6f7f8dacfdf1c2dU, 0x23fb09eddc5a24daU, 0x3001c538d6030c49U, 0xf0730eed84ef79eU,
  0x7fa7d020ee19c612U, 0xfa14d332241605a3U, 0x2a2e193c40bb5f41U, 0xf1e4dee70f01c2daU,
  0x2d2d471ee9e0f3beU, 0xed2b621e75524dcU, 0x6c9d3f4fad5e2fbU, 0x3af3040a619ce0fbU,
  0xe5d51521ae02a8eeU, 0xd10dea5133092efbU, 0xf4f60ff328aae6d0U, 0xe21fef38e34697cdU,
  0x2ea52112f16fe8b7U, 0xdd0fc1550d02ea43U, 0x2cf2651dbdaa2001U, 0xfdd6b12bfebf4008U,
  0xdeda4f365107f20fU, 0xcca3ccabdd6944e6U, 0xcd47f65121e7f10cU, 0xafe9eab217dbf9f1U,
  0x7a21bb68edd9dae2U, 0xf3e7dfa2f5450204U, 0x81a1cd0cd31ff7f0U, 0x2c0ae0e23c3915e4U,
  0x30fde0c3b309e50eU, 0x60eb03e63115151eU, 0xa3f81806c42df5d9U, 0x3c1316cef0def1bdU,
  0x7df33e10b213906U, 0x111e051c00404c18U, 0xfe26d628e4da260bU, 0x2ffbe9300ade510aU,
  0x15e40cfe2efd3405U, 0xdc30ea25e6b20a28U, 0xdb2aba33c9d6571aU, 0xfe81d42604e12518U,
  0xc14bf054c025bbffU, 0x5bc90605e115e5d3U, 0xe601d716cffd1a06U, 0x2d0edee22a0f334fU,
  0x6a0e25fb3b3436a0U, 0xe4b8393ff4ecfdf7U, 0x42eb10244a21fc15U, 0xcb2c4148e8d0300aU,
  0xa22755cf1506e1cbU, 0xa01b46f2c2e5fdc2U, 0xf918d5dd04ee1a12U, 0x27eb14012aff0923U,
  0xfdbaf0e74c186a19U, 0x3ae7b8cd3703ea1cU, 0x2600b4dd261641a1U, 0x8ae43bf50eb0d3adU,
  0xce28080436e0e00dU, 0xcb9fd528de33eb2cU, 0x161e0eda90e70752U, 0x4914c5dbf3f90c0fU,
  0x3134a72e0e057fceU, 0xdae205c1b11bab0eU, 0x27710a3bb14912cfU, 0xf33f32f8e41bdc04U,
  0x1a0d4ce9d8260eefU, 0x2edb1d7f604331fbU, 0xd0ea323610c91d25U, 0xfe1d0132002a17c0U,
  0xd8d0d9d429e81fe8U, 0xd5f3fbf2d6d7f1e7U, 0x10c00210db132cefU, 0x1bb838cecd8f0731U,
  0x2cd1d94527cdbcbbU, 0x1ef41dfecefeb5cfU, 0x13e9a6bb27f31029U, 0xde63918f2f74942U,
  0x20fdcbf334ef0938U, 0x3c27cfc0b20f1c9bU, 0x292c472613c108dbU, 0x50d1a323b60aeca0U,
  0x5af336c61eea37b2U, 0xd413f4e20016b9beU, 0xb69c44b42a3ffcc9U, 0xc55da93115c31335U,
  0x71517637ff1fb65U, 0x49e106cb2a9f0e1eU, 0xf037edbe16050033U, 0xdb05b1213705ba30U,
  0x16c6fcf2c6f2e2e1U, 0x26ea191c24112316U, 0xa6523643ff0955f0U, 0xd8f0feb3c0551147U,
  0x1cc132183034ede2U, 0x24d31cfcd3af2b3bU, 0xf2297baab13d0918U, 0x15f505060ed24b3aU,
  0xcbd37ff740161404U, 0x4808df23f11d143eU, 0xd01ed4ecffc5a4ecU, 0x5bcc41b5b566f30cU,
  0x33e4ebd1e1c0c2f8U, 0x23016fcbefff2a5dU, 0xe1c1cb13f51a2b4dU, 0xd11f539f10651afU,
  0xaf300c471b4028f6U, 0xbb485df9d5d1dd0eU, 0xf2f39719cf219b1dU, 0xfcfbf4170e2a12e8U,
  0x9a7b3b9e0d4c3cdU, 0xe9a8f7fb07eabf25U, 0x11214133503d8f5U, 0x1efdfaf40cfc40fdU,
  0xd3bb04fe001007eaU, 0x3a227f1ae9adf003U, 0x3f0608d7311e36f0U, 0xe229ec26e2041602U,
  0xc22bdc4dc0bdfdf0U, 0x1b32171d2330fdf9U, 0xfa030cefe6e2f3ceU, 0x26e70a2ecceb1afaU,
  0xd30a4f69f33911f8U, 0xa183120eff01606U, 0x2a0e1b0435a7f7bbU, 0xdd3ae5d6f5fc1ac3U,
  0xc3fbc5f1f1eff5c2U, 0xfffcaf0cee1931ecU, 0x20de31380cdbc10dU, 0x6a1eeef3fba3c9e9U,
  0x1bd3e43deb5eb895U, 0xcb244432d3e53203U, 0xeef93bf71d58ffU, 0xde070e59f308d0ffU,
  0xe8cc3a4d59c1afccU, 0xfffcb54ef1732b4U, 0xbf24cdfb40e2da00U, 0xdd0964e5e0bcf6eeU,
  0x3daed2088b3fdf37U, 0xafaeb526f4542641U, 0xe0b681dc78156576U, 0xb4020ffed9f637eeU,
  0xdeb9120bcb20efe8U, 0x292fa332ea250ee0U, 0xef3afdbeed1f23c6U, 0x599c6810614e6f4U,
  0x1dd9d60312f540abU, 0x6c662ae4f90a6b04U, 0x1802e8ec231dedeaU, 0xd6aad9f100bbebd3U,
  0xdedeeb16c4fb1009U, 0xd33e31c0d03422e1U, 0xc43eef0730b0e6d5U, 0x10c8394dfcce3d26U,
  0xea00b80f261ac801U, 0xf49043072a1b3a42U, 0x701ceedbce4f6d7U, 0x30bbacd0b173df78U,
  0xd40bfb14f6463007U, 0xaf1cb20fe3f023cU, 0xbccb1131f22deb09U, 0x2802c4fdaae4c7f8U,
  0x5101e4f7372302a6U, 0xc9380bff13d805b4U, 0x4d7eef6befd1d27U, 0xffcedbb5e1e1b253U,
  0xeb00d00adde144abU, 0xc21dec0e00cc6e8U, 0xac16e4d2ffaee5fdU, 0x182313befa1f0423U,
  0xe26f1ff37e72dcdU, 0xa24cd3e0d8f22604U, 0xe107fab54d31fc06U, 0xe5e3cf03e9672029U,
  0xd321b90501f6051cU, 0x5bfbe4812a3ded07U, 0x2da6fa10ede11c09U, 0xbd3a2bb5d894e36cU,
  0x57b63f18ddc0e0e4U, 0xecc0ef1a1deadff8U, 0x240ee38a20d9812aU, 0x4fe027df07382f4dU,
  0xbc3d02b003f321dfU, 0xf90a0759f8d43500U, 0x3919ff0119403009U, 0xcc3cb4be0d1f542dU,
  0x13e7f6f82ffdb10eU, 0xdcfbe2d938b9a8ecU, 0x4e18ee3c092aafddU, 0xe49d1f124ce4f903U,
  0x1b6d8f5b3b7bc00U, 0xf330fbd06cb357f1U, 0xbfe60af70206deU, 0x2f9cc9e9e531f80eU,
  0x31f8fcb906ea29faU, 0xf04a05d20c1be946U, 0xf6d6f53cf54c0634U, 0x3598baea509d0723U,
  0xe81eea2dfe3fdf27U, 0x903e51fcefeb1edbU, 0x2f263d011be51047U, 0xfc20e9e1d31b2614U,
  0x2b2108e01ec9ffb4U, 0x96d7fe3af918f1e3U, 0xde6233edf301d93U, 0xe11cc2d7bf7fe84fU,
  0xecb9da07ccf6621cU, 0xda03171fc011c3faU, 0xa4c9ccfbff5f2a3eU, 0xda12a608e50cf318U,
  0x141416baf929cfe2U, 0x89ce7ffd9bc60faaU, 0xdcfb2417e719eb47U, 0xee2e2229a3f40709U,
  0x1de2d2af380c0c63U, 0x5b8d1de2d02ecfcU, 0x55f142db00f2aafbU, 0x4ccb9006f70108f1U,
  0xfc000c433f36bfe7U, 0xc29909fa05f90313U, 0xd31110652bbe836U, 0xde372d05dddfd419U,
  0xbd43f916e1c91923U, 0xe5371fb60111b419U, 0xf7cf25e002f134e5U, 0xfb33f114d3062f2eU,
  0xa6da1e65fb252b37U, 0x7fbfae2c2f1ccfdeU, 0xdb0b29b42226f2f9U, 0x151f46282d07f2faU,
  0xfb0522d6090143e3U, 0x2af5dd2e22d9f7fcU, 0x29d1230eea370105U, 0xeddc3125d921c306U,
  0xfac56f111b1efd06U, 0x4715f82f15394113U, 0x819d9270a6ac712U, 0xc6030dfdfbceef10U,
  0xe6dd5ca5dab1062cU, 0xdbcb053ddfddfa15U, 0xe34237e035119ce7U, 0xee01010ddd071d2eU,
  0xdee42017cc81f1feU, 0x1adce511f12aecf4U, 0xededf8ca10c4b86cU, 0xfbd6c6b810ee0627U,
  0x8d41ecbf34bca0cU, 0x2ffcd327edc709f5U, 0x3df02b12e9f0e1dfU, 0xe38ed000df030feU,
  0x937d8e4230f0cedU, 0xff10050a2a2b0a14U, 0xc4e23220c007f8c9U, 0x18f10f095d16ac01U,
  0x2122aecfd202edf5U, 0xcf112cde28aae605U, 0xcecee227d72dfee4U, 0x25f8c403daec1b12U,
  0xe0cd2f0f5dd8023bU, 0x19f51defdc0336fdU, 0xf422fd07dcfa4bf2U, 0xede7fa3ac7c648bfU,
  0xffd5d02019dfddfdU, 0xc4eed00c0ae2becfU, 0xfe13149ded2d3d16U, 0x50f34e62ee7c0aeU,
  0xce43ec1f4ebd12ffU, 0x22000ce51b0805deU, 0x4712d516effc1507U, 0x1c0dd9f11202ff1aU,
  0x28bc31ca20ddeac2U, 0x25815802efd91aecU, 0x314c1efd0807e919U, 0xa02dc018264011e0U,
  0xe013f0b1b3d31a96U, 0x9ed242f3def61ae0U, 0xf314eb13fcf7df08U, 0x10490028ec35100dU,
  0x1c94dc0c3d2c507dU, 0x7c7e84116f91f0bU, 0xe6fb2133fce3d0U, 0x3840ba261fe1d5feU,
  0xff381b1d13e3e0efU, 0x1bcb2e0a06ecc6e1U, 0xfcc9a6c032e0033bU, 0x11223e3b2fdcf51aU,
  0xd91824341cdffa1dU, 0x81362207a5c9bc0cU, 0x64f06e641f6e5d1U, 0x1502fee9f2122027U,
  0x3dce5f91448cf0bU, 0xceee01ce36ef21e5U, 0x9b33adb00501d622U, 0x2327e3d008d00624U,
  0x139e8ab013a1a2eU, 0x27dbfae925eb2c7fU, 0x1bee220393e1bae8U, 0xe327da0bf703ebf4U,
  0x28e1fe01e9ecd1fcU, 0xe9f72be4f134e826U, 0xaaf970e2eecceb3aU, 0x25df0bf8df0ac92dU,
  0x44f0c402080eec38U, 0xdaec62d611d9ed18U, 0xf2c816fe14092afdU, 0xc1c3d71233483e18U,
  0xbdf82ac20fff0e18U, 0xe7d6e8e5f91c2107U, 0xa22d06b503ffd231U, 0x4affbc03b9332223U,
  0x2df410c92628f461U, 0x39edfcdfeeffdd56U, 0x16f91ee08110f8f5U, 0x4143fd7f0713fdafU,
  0x533105345e0d0230U, 0xe7cf45d308eb4d1aU, 0xbafb3edacfe512e2U, 0x1121003ef8e7c3f5U,
  0x284152000a11c8afU, 0xb23717c5b7c1d8fcU, 0xf0e323bdd507d8f0U, 0xf0b216c401fe0ac7U,
  0xf40caa070e02bf3bU, 0xe54f0328bbd810f7U, 0x1b0fe3464c19ccb7U, 0xd018b94120e0af50U,
  0x56d4d44ee7c6810aU, 0xf91ff90c1e28b1bdU, 0xeccae43cfef9004fU, 0x3a972bf4a031d934U,
  0x36a73b1c03c63a0fU, 0x5eefe0d50b56d939U, 0xc2571d351e275ccdU, 0xf85232cb251324e1U,
  0xbca289f2a3609918U, 0xcb4284f28d3fdc2aU, 0xf607dbe4f6060cbcU, 0xad281dcdc9c620e1U,
  0x332afcd2fa045f38U, 0x2b26cfff5d1f46faU, 0xe7c0e0cad31bee33U, 0x261606bd1217261eU,
  0x6e3d5e0ceae1126U, 0x1138f7028138c7f4U, 0xe5f9f6da07d62df5U, 0x36df53dbff07fc24U,
  0xfbe8d5d31b0b168dU, 0x2f37c145faadedfU, 0x1d035bc60e38f5cbU, 0x3308e00bc7195c31U,
  0xf5ba15d0ec0eee13U, 0xf5cacf2635f71107U, 0xeec8f4dd0fe71941U, 0x3104e10cc2022ddaU,
  0xc3e62842ea0fa32aU, 0x35e4063731e10199U, 0x2a29f807edc5eee3U, 0xe61a0238fdcaf7e6U,
  0xb2f208f30cf828f3U, 0x3cf7b8226240c3d6U, 0x15eee33311264126U, 0xa1d30a8eac6fb0cU,
  0x64e0c4536be3504U, 0xd3f302c2c9f2e134U, 0x25bcea40de013234U, 0xfbfd0e6024e117f6U,
  0xbbe617d8f6fafc15U, 0x11b2bb0dc23f0556U, 0xb7fe616435402eaU, 0xe4dbedfde2050d1dU,
  0xdc144f430be89d36U, 0xb9e6c1fa6a37d5f1U, 0x95c936a45bf326aaU, 0x28e0b6d809e8e9acU,
  0x162b48e83f25e605U, 0x26d4d2be0d8ed108U, 0x1fded3ddf316d038U, 0xff0a211dd5cc8902U,
  0xf30a0a30fff73d14U, 0xcfb60008d3051249U, 0x3342103e4ce7a654U, 0x3092190d4981ff2bU,
  0x6562effbe2cd1050U, 0x96d64ce6b0de140cU, 0xbd2351cee22c4419U, 0xb3fdf5fa08ddd22cU,
  0x2bee16b5f6ac2f1aU, 0x858f1e7d9f42dU, 0xda170e0d3ac2d929U, 0x60b5ef22f2460111U,
  0xdeecf0a7b4f5b5feU, 0x1e207509bcf0400U, 0x3234e2ee67aafdf4U, 0xf402db0221eed8eaU,
  0xa8008c18e92eb5e2U, 0xccef08c733eaebdaU, 0x7f1ee610db3bef0cU, 0xabb20e62f0be514U,
  0xf20ab9eaaddfe61fU, 0x2ba7344f3cfd5225U, 0x8ef4e766034af035U, 0x8170f160bde150bU,
  0xf8d803fcea0ffb28U, 0xf11a392e1419d300U, 0xfd19f9fbaf7a30f3U, 0xf246c346aad353f4U,
  0x8c22a3f1ed622e2U, 0xf316f624260de543U, 0xfb1e5a13ecfaf6c3U, 0x2b2321c1e8f22cbdU,
  0x47df3224b1c00315U, 0x621800caeb0e4888U, 0x17c2c9bb1fecc448U, 0xcd0fee10f52d1025U,
  0x4a90178020781efU, 0x1355b9e1fcdfc1d0U, 0x131017001de5fd31U, 0x20f5dc0dffdd00a4U,
  0xef4ceb571747c3d0U, 0x160a2f3610c50081U, 0x2dd9e8ab4ffa2ac0U, 0x1121cd080fa5dddaU,
  0x1ada2c4c1a13acd7U, 0xeb17dee22307fbb7U, 0xd40108272622fd1bU, 0x21d813c415cb19b8U,
  0x3730225c3c3d2022U, 0xf20153f4ea451d3dU, 0x4e6f17e04eaa1b66U, 0x2f130dc1212eeccU,
  0xb6a3fc26b0ced818U, 0xfc38ecf2ec1db360U, 0x372c1bf53ca0b6c3U, 0x8dafae4042a14edU,
  0x617d1da4304e510U, 0xe4221107c8e20bf2U, 0x90ffaf022f80f0eU, 0xfb321de0d7e0fdd6U,
  0xef26c923053a120fU, 0xf010fbd2ee0e19f1U, 0xfaf1fa34002c25fdU, 0xeed304e4c3160881U,
  0xeec4240ac741e6d9U, 0xd5cde944fdce29b2U, 0x2e15e4d522000c1aU, 0x481cdd170a34160aU,
  0xd9dfc16f2d42b15U, 0xeb23fc4701f4ecd9U, 0x311024624bf3f0dU, 0x1406c8f6d0ebf632U,
  0x3bdcbbf804ddc29eU, 0xb081ed26c60bd871U, 0x72a3925291c21efU, 0xe3fdce1b0ab5f3fcU,
  0xb0420ae56e07930dU, 0x46126f1f40c91d07U, 0xed03f6510035c20fU, 0xcffb9ec0f233fd19U,
  0xe1ee5ce43cfa1daU, 0xb91e25e8c2f2fa02U, 0x1c184cecbb28d397U, 0xd80eede41e26d9fcU,
  0x53eacf21321bfbf1U, 0xffe50af03ddffb3U, 0xdc9c0ff4c4222b1aU, 0x891b6d6dc1711eaU,
  0xd61c09360421f9e0U, 0xb8f0d0b0a810a12U, 0xb89e0de645ed5cfaU, 0x36d8e92a07d03cdeU,
  0x1ce55f0e98dc9fc3U, 0xfdf31c1cce110305U, 0x2505cbfcee1b3509U, 0x6d730f948e509f9U,
  0xb0480d15ecb0df1aU, 0x5262c1e0c5a1ce7U, 0x70000b4129e12835U, 0x795fcacbdbcf3f1eU,
  0xf8ec500729229ef8U, 0xc2e003cad90aec1dU, 0xf0342fba21fdc636U, 0x1641f0e8e5d615ecU,
  0xef45f92523373830U, 0xe41b001c194b1318U, 0xee4ce7fd03c31accU, 0xdb134ef9f3e419fU,
  0xe2e9adcc36ca4014U, 0xea2c2906c6d8d9daU, 0xfff9eaf7e9e31bf2U, 0x3716bffdbf1b0832U,
  0x9230fdf6f3d3e60cU, 0x48b0c2d3c200e1c0U, 0xc481ae029038ea2aU, 0xed3a2fe1c21af579U,
  0x37111c2c72daf2f5U, 0xecf967f2171017d5U, 0x4e2c2b4e097ff570U, 0xd22133f0615c3d7U,
  0xec0046da141c11d9U, 0xfbfe253a16f7d6c3U, 0xbcb642b2f2c0c43U, 0x1a93f040fb4911b9U,
  0x1afc2919dfd0b3feU, 0x1c28dced59e1a113U, 0x21fb1e253907fb11U, 0xa526b09c0809efccU,
  0x7f152e1de1b3ee45U, 0x22fc33a30efe2ef0U, 0x8acc0a0817d1bbf5U, 0xd1445d0ee5e82906U,
  0xeffdffa628eef9ecU, 0xe111c7eb3cd7f82dU, 0x5139f8f325f7c2e2U, 0x2136251536112a00U,
  0x120c238231d381aU, 0xf45af7dd420cd547U, 0xfbf70d08e4d1bbd9U, 0x103600e30af2e0e8U,
  0x16d4151c030f231fU, 0x1e1cf5d2fab81c15U, 0xc9ea02e7f909cee9U, 0x515704ed46b2d6c3U,
  0x7f40713fc630ff0U, 0x93bdd74ff0631f6U, 0xd3af1e91ab9fd1aU, 0xb2020608f01313acU,
  0x1962dd03f5ec0429U, 0x1d281cb6f4d3fa7fU, 0x41c30f2fb4b648e7U, 0xb9fe27f913a8f212U,
  0x3f90b33eabb1719U, 0x4128eee13cf3000eU, 0xdbd1f2f61014c825U, 0x35d62a21ff2ff7deU,
  0xcb2f6215e9d2819bU, 0x20c2061de43836d0U, 0xc5e3f6dcf6fe1205U, 0xbef1f1093bc1e514U,
  0xa2e2df0ce9061815U, 0xeef5bffd06ddf0f5U, 0x2b0d10f4b9180e33U, 0xdeb7fcb4070b3ee4U,
  0x370ce2f3d7fc4998U, 0xf2dce5ef36db34deU, 0x1cf6267bfce6d2ffU, 0xef51f6ce23ee06f4U,
  0x7fd6dfb1e951e0c8U, 0xfef5451ee9d820eaU, 0xd51e3905fe1114f4U, 0xfbfd14e31a1b02fbU,
  0xbd041319eacdfb1bU, 0xad971b3812ca28ffU, 0xe9540060e7925c1bU, 0xfcbdb6d6d8dd0cd5U,
  0x2993fd09ffd2f3bbU, 0xd810f926e0161ef9U, 0x2fad7c54cee0715U, 0xa12df18d51a2f05U,
  0x5811f927e3a52837U, 0x11dec900ecda35f8U, 0xddee3d1b31cefd1eU, 0x1c2305c6bc152f16U,
  0x12041ff9e3fcdbc8U, 0xebc9272eebcfe6e6U, 0xf29d121210c51e7fU, 0xae20314173b2a33U,
  0xd110080919f121d9U, 0xfb9c2413190d01f2U, 0x2606ee1e02173317U, 0xfbc0f206d1c828c1U,
  0x2bf4b322e404dfecU, 0x19fefe2be60f08d0U, 0x431b7c51c1ee601U, 0xd9f2edf707160b21U,
  0x4eeeff10dcd72211U, 0xbe523002ff1220dU, 0xd9ff2ce938dc1929U, 0xfe26fa00fce53345U,
  0x1d07342c1e0dfc02U, 0x23011a32360dd400U, 0xc0fd1409de9cc3d1U, 0x26d7f2e5d7d816f7U,
  0x34ea33f11f00deefU, 0x38d017c23bf7b00fU, 0x53ebd6d7ac7feed6U, 0xcfe7310bd6dfb7daU,
  0xfb0328fecc012c5cU, 0xb3d7f4ea0cd863d1U, 0x51cbf8f2f51e9910U, 0x2bd1fd08d1ea07e6U,
  0x9052f51cecb0b20U, 0xf1e4d91c0d0efbe3U, 0xdb203fdf1b1b21f4U, 0xf92529188e25e9d6U,
  0x7008e6fef708340dU, 0xdb11d4eb20240840U, 0x320b00eed1da0821U, 0xf9f52cf820e70fe1U,
  0x6e9dbe3201a17eeU, 0xd4fae81912990b08U, 0x817dc0fe3cc151cU, 0xf8c3ce0c3c260405U,
  0xe24e8bede9cdca03U, 0xfd0dedba797e0d0U, 0x4f4bc05da6d25e0U, 0xf1ff09e2fc2f047fU,
  0x50090cea37d802c0U, 0xe61e430004d910e9U, 0x716072af9632d46U, 0x1b04ff16a81be3ecU,
  0x53e0a01042aed5ccU, 0x3713072420cc2b23U, 0xf520f90824eb1227U, 0xbcc1ade62423dfe2U,
  0x2e03e012c0140ae9U, 0xe1dc3ce3de29f506U, 0xa77f63091d9c8322U, 0xf20f39fd093e39eaU,
  0x2efb13c8030a00a0U, 0x27e5e7730f0afdbcU, 0x364b20b70210d7e1U, 0x2618a5f5d05ffce4U,
  0x3d0df618cd6709fbU, 0xf52bd52f62ef2bb0U, 0x5321ee6efed2323U, 0x60c722e5700f6107U,
  0x303326ffd8f6155bU, 0xc53ae13c3a12eee9U, 0xd05a2bece00fdfe8U, 0xecfbfca6e8da41baU,
  0xcd5af1ac3f361ef5U, 0x6b0ccbcf374aed74U, 0x55b4040492478120U, 0xde43f00ed23201c2U,
  0x27d802fb1efc1576U, 0xa1c9de40c04be515U, 0x9bce119bdcffd8f8U, 0x690ae2c426a9ac2eU,
  0x4f24a7d58e04f106U, 0x9c23fd09ac1ef70eU, 0xe1b9d6d4db36dfdfU, 0xf325f11b101f6300U,
  0xfd13fea8c01b0604U, 0xcbe65e3c95fe17e4U, 0xcf02de1aef0dff16U, 0xf946dd22c8bcf6f6U,
  0x1b13d2f9fa32337fU, 0xdcdf0df400da2740U, 0x59f303fefa0cb8f5U, 0x3730d410b01bdeb2U,
  0x66020d130008b10dU, 0x2033efbeafd0615U, 0x142d060e14f1ea1cU, 0xd4bf033090df51aU,
  0x2634e01f0606ec2dU, 0xd74421c5f1a4e82eU, 0x1412f4c00a060dfaU, 0xf9100ad4390cf0e7U,
  0xbdf9ccf80537de0fU, 0xe0c2e31de2907beU, 0x2ef53a36e2fe19eaU, 0xfacef229e80f19c5U,
  0x1fef0c070fdfdc23U, 0x2010dccf151de6d2U, 0x15ee2021091cdf17U, 0x8140c5d5c4dbe415U,
  0x15412de8e5b4d7f3U, 0xfde72d0fb5fff13bU, 0x14c6c654b20faa0eU, 0x2e92af2c517ed2eU,
  0xc8dee1f821fbf9feU, 0xf1a208d1d917eafcU, 0x381c02f8224aede1U, 0xe6f9b813d1db1e6aU,
  0x3481ecdc1fe9cbddU, 0xd4d7e9352aeef8c1U, 0xfed47c4fc14e622U, 0x4ef917e810d7e531U,
  0xc42e06e30af906e3U, 0x151257f8023406f3U, 0xff2e2cd61c23e20aU, 0xd0cb27e611f63f2aU,
  0x4513b8f712e3fcfdU, 0xacdc2416160bf60dU, 0xc60146fc06d5cbc5U, 0xfeceebcc02461acaU,
  0xde12c0cccd060f0dU, 0xf91003d31d28352dU, 0xfff1f7e4c91938e1U, 0xc7e43502dec5d8f2U,
  0x22dd290c4c102920U, 0x2c0506d2d0fecd0dU, 0x29ef15ceed104dbaU, 0x48150137c02261faU,
  0xcd971f9bfe28dc1U, 0x3338e33fd4d5f1deU, 0x242b47c1161a19faU, 0xbf445f36232b9ccU,
  0xf87fe3ffffe5eb52U, 0xf028d50f3e3443c0U, 0x1868682716d1e81fU, 0x562409eb1fce08e0U,
  0xf34822f20004f5b7U, 0x3adef90630164be1U, 0xf24fc092b06c529U, 0xecc2d3d9170634efU,
  0xff5ec06fe18c3f1U, 0xff16f923bfefe4ddU, 0x17e90f2a29f41ad0U, 0xe8cefafb16d9c522U,
  0xbfff72d2dfd01ecU, 0xe5013c2a31f1f9f9U, 0x102af00d00caedefU, 0x151fe1f6e2360a1dU,
  0xae515e7f52c02d7U, 0x304131232f704fbU, 0xf60cf41914f22be0U, 0xfb1cdede157f07fdU,
  0x18d5291cf02513dbU, 0xf602ee0fe42bdbedU, 0xc9eef7ecc2f80900U, 0x290f261423f9eaf9U,
  0x53ce812bc9d613daU, 0xaf3071ce50fff02U, 0xea16f8f3182751eaU, 0xe5b7fdebdbf700feU,
  0xfd04290111eff11fU, 0xe521dcd9f0ec25d8U, 0x1b551dfd01b5dfdfU, 0xf4de87183612fbefU,
  0xc5c4f8d32613d99bU, 0x4514f3fbcd11edbeU, 0xe0dce647edd4faf3U, 0xf22efdfd2b0605e3U,
  0xfde6f406f928c516U, 0x1d07eb34072839cfU, 0x18f83e29ce27fa24U, 0xcdb9f1c70ff31fe8U,
  0xd5f6f23805fac011U, 0xfdf3160011dc0304U, 0x5e21c1e082432dbU, 0x607da09b3083bc7U,
  0xf9d51a18f80bf4dfU, 0xd8dd5b043b071602U, 0xf63e4bc403d41dfaU, 0xf11d1033c11fc27U,
  0xdef3310d0afffd03U, 0xbfbe30345e814c0U, 0x1916dd8b14e820d6U, 0x2ed88100e91b06b3U,
  0x9f033292b512ff2U, 0xfed5ed230828ca06U, 0xe8f43c1d03f3394fU, 0x2e0d1fbf081031aU,
  0xa81c1e1bf4e30be2U, 0x2d0ae1f03528ead8U, 0x6fd0b19d84d0ddeU, 0xcf3a4d06023d0731U,
  0xaeb07e7feebd8bfU, 0x2708ed261afdd720U, 0xdf02404c31cae05U, 0xbf2f260fedc71db1U,
  0x54e61c62e909ee1fU, 0xc8c8d70912051819U, 0xf82dd71e36e7addaU, 0xfb10e12519ef08bcU,
  0xc41ff9d9d8dde712U, 0x1707f6c627c9ff11U, 0xc30c3ac722d7facfU, 0x3f39d7e1173681c9U,
  0x440bc1dc6f5ef2a9U, 0x142df8f1f3141becU, 0x1e43362d21648U, 0xcd1cb9caaae1f6e5U,
  0xd707c8aefdc1bd15U, 0x16f200e0b6e3f9ebU, 0x8bc9fc421db90f7eU, 0xeeee40e23316eed9U,
  0xfa0ef04ac7d347b4U, 0xe30926fba8d3e821U, 0x301614b90dbfbe1aU, 0xe23d00eec0431030U,
  0xf3210bcb2e08e803U, 0x57e8b0c5cb0efe06U, 0x2b55f32e37fc4df3U, 0x18aae0fcf9c7beU,
  0x651d0303eb1c733cU, 0xa277bef84f25ec0eU, 0xe7450a71cb24d0dfU, 0x10dffb81281ad8fbU,
  0xec3090213c3e432eU, 0xb9c3ee14b0e3de32U, 0xb7ecd0e9bab83006U, 0x22cf0fe815f44a0cU,
  0xe427d5e7da9e0427U, 0x2bac9fbbea0e24b3U, 0xa5f3984ed4481f03U, 0x3f410dfea172002U,
  0x49332f1105ef2b00U, 0x1b2623b31bd1fdf1U, 0x163dfafc00250f54U, 0x4414e135b31be5f2U,
  0xf7e8f020b02f53faU, 0xd6aa1becea2b3841U, 0xc513df9af5f82ebfU, 0x1cf45aebe9a727d3U,
  0x341ad9d9430c462dU, 0xf537182ff30b42f0U, 0x141a05d2d9dd4440U, 0xfce202df73eded24U,
  0xd708e617e70b25e0U, 0x23a8b65206080733U, 0x2223d317cd661b0dU, 0x4ececf81d7cc002dU,
  0xff3e36564bd82019U, 0xb8cb75d830e50bf9U, 0x301e31432f09270aU, 0xd5f4e531f627b808U,
  0xede7ce26cfdf0be6U, 0xd6ebc5fd00e3e4e6U, 0xe91dcfaf07ae0e24U, 0x928fe150e17ef0bU,
  0xf8e5e7d6c1d82bfcU, 0xc201ef1de0d1b10U, 0xe3363bf103f4e2d4U, 0xd2ee1f32094940f9U,
  0x10f5eb0b20d51b0fU, 0x34f9f407f723fef1U, 0x2648efe53415d5bfU, 0x3803c9fefe091511U,
  0xe13f267fef1202daU, 0x336f72e212e36e3U, 0xf819f2fa31cd06f2U, 0xdf18fe27e8e8b1f6U,
  0xe8a0451c09100e28U, 0xfff41406f581a009U, 0xfb0b38a4200df58cU, 0x10d72af50bcfdcf6U,
  0xda3a1b3cc6f31804U, 0x40df14500dfd110U, 0xcd0f2814f31d0aa6U, 0x4f040bfa1129e2f1U,
  0x1b221610bb20efedU, 0xbf2ddbde450714b5U, 0xeb0428f32e1fddacU, 0x1ffb032d49c45ac7U,
  0xb2dd37e3fec7d4f4U, 0xecbbb015e3b704c9U, 0xfd21ffe200f504e8U, 0xed2219bbbfdc06feU,
  0x29a9f0b1170601abU, 0xfbbbf23ff62f08d5U, 0xa3fcd6c5c9d6d73eU, 0x50bfca55ae2f7d3U,
  0xca25dfcf25092e13U, 0x16ebe8f0fdce2b2eU, 0x18dd01e7be18ea81U, 0x2041115fafb182eU,
  0xe116e929eef9aa1cU, 0xe713e80ebc12f530U, 0xcdbee8f3c6edf8f6U, 0xc9b242fdfe4f1227U,
  0xf122d8830ee03f1bU, 0xf0e7f3bcf1faee0bU, 0xbd2543eed605f3cdU, 0xeb2a0f261d15210eU,
  0xe9e408c505c31af5U, 0xa06d3f65301d5eeU, 0xe6e42cd50a00fd1aU, 0x33d526f6f9c70e1cU,
  0xdfea15ed04e70f4cU, 0x12e9d1dcf7c2de7fU, 0x2ddfefecf1f0ead3U, 0xbbd5db01e6e4d900U,
  0x1c21fdf405ea0c32U, 0xc70af6e5de0e1a2eU, 0xd3fc2c53ebcee8e5U, 0x510bf306e1fc24efU,
  0x3afb9d22f7285328U, 0x16a3020ef5214424U, 0x55e8fcf9064b07f6U, 0xdcf7f20c571af718U,
  0xeb04cfebd2d6d8f5U, 0xe112efd20eeb2b09U, 0x20f3e1dcf6ec461fU, 0xdf13d041c5394034U,
  0x20b5191afb2a1cbeU, 0x27ef2e2f202108e4U, 0xe01670d5f0fe07f3U, 0xea32de0f1c0a3bcdU,
  0xe30d2b0bfc0e0877U, 0x2c2fb2613ee3681U, 0xc3610e21fe4f702U, 0x4b19ac29ea1eddc2U,
  0x8ea291de105dcf1U, 0xd929ce56fa12dfa4U, 0xfed91e05eab9bf2cU, 0xdff09d81b19afd07U,
  0x9de400f7882fe22bU, 0x2ced18c439f609ffU, 0x30211fef349a0d1U, 0x6c1ab1f30b19531eU,
  0x39301bd6cab4ca84U, 0x242d09ef17a6dac2U, 0x1ae41fac2657e3b8U, 0xf3ffff90a1b3afbU,
  0xa5fcf014e771bd3eU, 0xd614c7274be1de33U, 0x6b11dbd41c4fc744U, 0x52c169cf13e7f03cU,
  0x1e25e5f9ea0cecffU, 0xdcf70a0e04bc1bf3U, 0xd34c100e34feb7d2U, 0xeb19d3d13333291fU,
  0x341346c10223eac9U, 0xfef3051cee1c2504U, 0xd32881b5f412d336U, 0x21010cca0bf1ea0fU,
  0xefcdbef901270b40U, 0xe4e6c7f6f5f3b779U, 0xf3071b2abdec0f92U, 0x10fa11232608e802U,
  0xcfc6c468db0f86cbU, 0xc535d5dc2d6be5f2U, 0xce5fcd9a0f7e8feU, 0xee9ffd2a083306e4U,
  0x1c2ebef40e1c5c0eU, 0xde2915c5044436e1U, 0x1d2b23dc1e071bcfU, 0xffffffe80000036dU,
  0x82400001247U, 0xfffff2b500000fd2U, 0x168d00001a53U, 0x92800001c44U,
  0x2600000006fU, 0x1c32ffffe6b0U, 0xfffffd8e000011bbU, 0x184afffffc5aU,
  0xffffff29000008a2U, 0xfffff73c000017f7U, 0x19cb000019fdU, 0x1ca100001bc0U,
  0xfffffe35ffffc817U, 0xfffff2cdfffffb9fU, 0x70cfffff226U, 0x16ce00001cd9U,
  0xfffff15efffffea1U, 0xfffff80200000f6eU, 0x4e4ffffebc6U, 0xcc9fffff158U,
  0x7ba00000504U, 0xc42fffff728U, 0xd29ffffe09aU, 0xfffffd7effffde7cU,
  0xffffed6100001b3aU, 0xffffff0e000013efU, 0xb0400001cdcU, 0xfb00000f64U,
  0x8dbfffff702U, 0xffffdd0700000470U, 0x2218fffff758U, 0x22a00000872U,
  0xffffe34300001908U, 0xffffed6500001918U, 0xffffea02fffff2eaU, 0xffffec60ffffe9daU,
  0x12feffffc57eU, 0x374fffffd46U, 0x521ffffcc97U, 0xadfffffef6fU,
  0x11600001a38U, 0x1cddffffefecU, 0xfffff2670000030dU, 0x1a8100000197U,
  0x813ffffd6cdU, 0xfffffe59ffffbf98U, 0xffffef6e0000295dU, 0x1a2ffffd70cU,
  0x1b250000229eU, 0xffffec53ffffda0fU, 0x14dfffff630U, 0xac7fffffd4eU,
  0xfffff032fffffbfdU, 0xfffff66a00001965U, 0xffffe66dfffffb9eU, 0x9f90000153cU,
  0xc5500000e9cU, 0x9d8000023c2U, 0xffffd38fffffc7beU, 0x454fffff5acU,
  0xfffff1a600000dcbU, 0x2536ffffff3bU, 0x23b0000140fU, 0x7f17317fb81f6e66U,
  0xa1367f4bfa707f81U, 0x85817f35107f7f4eU, 0x81a8818de08c7f7fU, 0x7f818100810c81a5U,
  0x7f815b81bdb18a81U, 0x8181810c7bd24c5eU, 0xc84a133ac37fc5daU, 0x86c812bc3c7fdb41U,
  0xf27f44e6a37f4ff4U, 0x7fca2c77817f01d5U, 0x81f781c43e15be7fU, 0xbe5037d2816940b0U,
  0x687f557f81af5e82U, 0xe32149816e134399U, 0x8b6249d33dcd7f27U, 0x19f33a1cdbec3b7fU,
  0xef2c1400186d69d9U, 0xa8b348da1e683821U, 0xde9fa7a487c46023U, 0x63fad271033894d8U,
  0x2ac830a204bcc2a6U, 0xe9c8cff540ae417fU, 0xc32071f776bf9feU, 0xe02eea0a5020df07U,
  0x74ba5dd481edcU, 0x48db062ab306fa17U, 0xdbdca3d52ac6d67bU, 0x932ff809c06c09dfU,
  0x6a63e461b5902cb9U, 0x9b065acd5e201be1U, 0xba1312a911e6f0c3U, 0x1dfd0d1fef04457aU,
  0xe13cc7091c735addU, 0x81b7298112562317U, 0x19d2d1c681d82511U, 0x31e9f82ee838900cU,
  0x11b1628dedeabab6U, 0xcabbf5f228b27547U, 0xfc3210395575f115U, 0x27124e142f4e3dfU,
  0xe5ca54b9ec290e41U, 0x4ca5cc19c2f80107U, 0xcf9fd7b5aabfb069U, 0x815df6fa247f069eU,
  0x2c51812ec48113a0U, 0x81f54ce67f0217efU, 0x9115f4817a0f01c5U, 0xcf5311efc004578U,
  0xf10cca3b2e6655f2U, 0x93af41ad0b090b22U, 0x18c5ac0ce2c20308U, 0x3fe0f36cfe05bffbU,
  0x5a23a9ffe1e98f9U, 0xf6d420fad7a016c9U, 0xee3701367b040d09U, 0x7a40ebd72bddb1b1U,
  0xdc84730b41312250U, 0x2b0c517f1f0e2d9U, 0xd781b28389108160U, 0xae7f34584b663ca0U,
  0x4b25930ba4af0c97U, 0xc3fe7f0f5d001bc8U, 0x81e8b79f3320df05U, 0xc9011202fb4967U,
  0xf4c7e6d63b2242f8U, 0xd1c96fbdcd34e2edU, 0x1bbbb3ec4e07fbeaU, 0x1acaf05ef5fbc11cU,
  0x1ac048afbf2cafccU, 0xed1f28fdc681004eU, 0xddffeb342be40e09U, 0x7f7f99d2adcf9b90U,
  0x22ab7ffb79291f6bU, 0xf2e0d92a00aa07ffU, 0xb2e1d89a8133aa3eU, 0xa9371b7628647f81U,
  0x482c8519b9c3fef0U, 0xacb53e2d18caececU, 0xc32b83963c57e905U, 0xf9950300ecec4c2eU,
  0xe6aeeec96544ff10U, 0xa5194ddf8132e3caU, 0x9818f15022cffd2U, 0xefe1ed7f14860527U,
  0x1fa73a92e10aa7fbU, 0xe8352e0fe69d0753U, 0xeeeb4726761813fcU, 0x1a4081e993b1c5aaU,
  0x37c3093e5642f97fU, 0xcc2df721c8e740d2U, 0xc02c02aad273a526U, 0xc73bfe724f2e49b4U,
  0xf921b62ed90aecedU, 0xb199061cf981e82bU, 0xbb3a81c7271e93dfU, 0x19902e640f9d6d2U,
  0xdda90dba7f56f3f0U, 0xb96c424f8a6cf59dU, 0xf5bd88173d120ed7U, 0x15c4e64f3106fef9U,
  0x24f633b9c40ecd00U, 0xea2e2d0bb0d1c24fU, 0x1ed025217ff3fee2U, 0xf01bb81c8182eb81U,
  0x401c1e67515c0346U, 0xe1fbf61fe4bc38bcU, 0xcc492081277f4f31U, 0x833704496859230aU,
  0xc132d02ef427a643U, 0xda9fda0edc87c940U, 0xca17bdd21fe5a5b3U, 0xf381deee13fea6f6U,
  0xd7812581057f0700U, 0xf34d1765a029f781U, 0xfed9d22013eafff1U, 0xe603f64249b8ead0U,
  0xb0245ee9b47fc0bU, 0x1d4f2f0ae99dbf43U, 0x1cda32d0ced0f9f9U, 0xaafcc43cc58c1b9bU,
  0x5400de7e1835eb38U, 0xcb54f60dcca344d5U, 0xb25331d71266501fU, 0xd31ccb60353d1dc5U,
  0x82351de6ec03815cU, 0xeb91d1f399d3d17fU, 0xffd7ffd028a7c681U, 0xd494e90136ba81caU,
  0xb8d5fed2e74cfc2aU, 0xacf3d21ca638e0a1U, 0xadfdf34f30a2efeeU, 0xefdcd3681c8109c4U,
  0xdbf05ec4d42d3722U, 0x2015002cb59bbf0fU, 0x65c742c4891b37efU, 0x964eae50e6aa4cb2U,
  0x7d47077ecb0fb337U, 0xb7491b48a9a847f1U, 0xabcf25b4f516592cU, 0xdb0b9a7f0d232da3U,
  0xce3a5c03e1aaaa5eU, 0xad81c9cbe724b55aU, 0xccacffe72881c69dU, 0x85da81f37f8188c9U,
  0x8104ec3ede483149U, 0xa8efee28ad22a8b8U, 0xc6f3da7f5481e3bbU, 0x4f2bf7930aa4c81U,
  0xd2d27fe1817f7f45U, 0xe8ec2e7f81da81e0U, 0x7f817f8190eb7f81U, 0xd73a8f7f1d927fccU,
  0x7f7bcf7f810e8121U, 0xa87f7f7fefb27f81U, 0xdf8a21b3bf1f5339U, 0x14c781651fdd2ad7U,
  0x811527ebea909f7fU, 0x9eeb8abe834b812eU, 0xb981e6a67fcef191U, 0x0U,
  0x0U, 0x0U, 0x0U, 0x0U,
  0x0U, 0x0U, 0x0U, 0x0U,
  0x0U, 0x0U, 0x0U, 0x0U,
  0x0U, 0x0U, 0x0U, 0x0U,
  0x0U, 0x0U, 0x0U, 0x0U,
  0x0U, 0x0U, 0x0U, 0x0U,
  0x0U, 0x0U, 0x0U, 0x0U,
  0x0U, 0x0U, 0x0U, 0x0U,
  0x0U, 0x0U, 0x0U, 0x0U,
  0x0U, 0x0U, 0x0U, 0x0U,
  0x0U, 0x0U, 0x0U, 0x0U,
  0x0U, 0x0U, 0x0U, 0x0U,
  0x0U, 0x0U, 0x0U, 0x0U,
  0x0U, 0x0U, 0x0U, 0x0U,
  0x0U, 0x0U, 0x0U, 0x0U,
  0x0U, 0x0U, 0x0U, 0xe8f900e7d646fb16U,
  0x43f647f90132a8f7U, 0xcbce1f52c18d7aaU, 0x1dd0072313cbe90eU, 0x110d0ace383f4f04U,
  0xd0d3d217cb3ee317U, 0xadf7edfad11013e0U, 0xe3d6fbcfe7cb3bcdU, 0xf307edbdf4b5eb61U,
  0xf71ce31021f80e0eU, 0x2f9113bde223115U, 0x302af6fe5afa0fc8U, 0x937dc13de37e1fbU,
  0x81e30b07f9c611efU, 0xe10e24b135f9f3U, 0xfbb0f2faeb2252e9U, 0x381413e8182cd8bbU,
  0x24e4480d45c75e6aU, 0x2508f00f334d0de8U, 0xe2ffe22e81f921e1U, 0xfeaca1069b7b133aU,
  0x72d1f6232d20759dU, 0x3338f0f837230e02U, 0x242a293f2602f5d0U, 0x333c5fd2b3a704eU,
  0x2afde9d058d0f6f3U, 0xc7ce10f360f50bacU, 0x28e2cb04dbfe0490U, 0x2d06f82aedfeb319U,
  0xdbcc242ad21b24d1U, 0x1be73de537332685U, 0x7e6f051c1222bccU, 0xf4f2e11fd6cbe637U,
  0xbad5c1bd38ee2438U, 0xea16228be245a245U, 0xe67f0eefd6b80ac5U, 0xb51dc3de0013c709U,
  0xe22a083f241ebf01U, 0xbfc0effc2415ea40U, 0x5f25f443160111e5U, 0x8b181f5432263bU,
  0xc3fe26b45c462707U, 0x5f440ff408fb2903U, 0xe7fe381acd1f0bc2U, 0x5503625c0d3f639U,
  0x6244d2d584e2984U, 0xca1ff7f33ff2b9cfU, 0x3b601c50c99d19f8U, 0x13332e0e27b601bcU,
  0x140df2ba22f1542bU, 0xf3dfe510db4bf7beU, 0xc371bee16afe1a8U, 0xfe9abe52dd1c022aU,
  0x55c350daf2cb4bccU, 0xd8e7fea72ee12e0bU, 0xeffa202512e1c505U, 0xfdcaf3e81c4432edU,
  0x25d239e0e7210decU, 0xe43ff4061ad5cb94U, 0x1617d003e80454cbU, 0xf01c0bdd0b16cb21U,
  0x40fc5909e51a60bfU, 0xf1fe7be32fb9c981U, 0xec08cd49e84623e0U, 0xae19031f17c4db19U,
  0xfd142231d6fb1ddcU, 0x2618191f3517c0edU, 0xbaf30363e3c94e09U, 0xce08a3a9f6f705e7U,
  0xb720ce160eeb5910U, 0x2208dbf5f0100ffeU, 0x2a90013f23eaf69cU, 0xbf1ffbd021c9d5f0U,
  0xf7064bf2d333f211U, 0xf4560b2f2cdddcd6U, 0x2ec4040ad01cb5e4U, 0xfd2109db16ffd3eeU,
  0x142e2eb201fbdbf7U, 0xd9f80f0e110281e4U, 0x2d2b3b1f0708e833U, 0xdc8dbc20dc91bcaU,
  0x77021d18f1212717U, 0xfdedea00d421ed44U, 0x52dad2d0d028f23cU, 0xd710fdc1b73dbcfcU,
  0xcaf5d02ffccf17e9U, 0xf9f933f02d4b1c09U, 0x44d829aabbdf0585U, 0xdd0cfa28e8fbc40fU,
  0x47b50c1fd5180cfbU, 0x29f55002d1014b06U, 0x13e922231281e3f2U, 0x2314e7e1265405fdU,
  0xf49865fafeede136U, 0x3ee4350ff633ee1eU, 0x2ef80fecf437fc19U, 0xeb070a1cabf1b93dU,
  0xfabdbf6813097dd2U, 0x2ceedf3dd8efc1c1U, 0x231a4ce0cbf8f7cdU, 0xffc10df6e1ccffc2U,
  0xe90448df57ccc10eU, 0x54dfee09cd42981aU, 0xcb04e6b50f5a19c1U, 0xb4fcf9bd51425943U,
  0x8155ca1cbe5238a8U, 0xa0912e21d92f22f0U, 0xafa1be17f3d94c04U, 0xffa36e8f5cd134eU,
  0x27eb25df5ca3ec50U, 0x6d9e25efc032dc2U, 0xebd2beec5d6ed558U, 0xf9c0c0d9d23a221cU,
  0x29bbabfce1bfd1f6U, 0xdd3cfeebf3f5f74cU, 0xd4c4cca6c3e6e81dU, 0xb80abbefc632e9b5U,
  0x1b3e18e6dfd0ca3eU, 0xae8fbb5fc46e80aU, 0xdc00dfb2cb0322e7U, 0x5a1edc9fc7c13011U,
  0x1cd7b8e638ebf903U, 0x2c04e4a8ee5ffceaU, 0x20a93334fffd465dU, 0x3d2dc1ee2655a5e9U,
  0x633102ac93b52e2U, 0x280add3ae9d4c5ecU, 0xbdb337fd423c4beU, 0xefc1f1123e8dbc5U,
  0xc3d0e8ece6ad3d2aU, 0xeed437c2162213deU, 0xed66ffe6fe0502dbU, 0x34c9d811fc3c0bf0U,
  0x3208f6effdee18beU, 0x18eef1e67fabf5faU, 0xc0fff608d9d0cccbU, 0xdaf6fa1020c84bd9U,
  0x244be3f2db00ecc3U, 0xe4ebf6022ee7d2dbU, 0xd915def5125245a9U, 0x2f16131cff2cf6e0U,
  0x37e84452e50a19f0U, 0x3bcf13c118fce6c6U, 0x1ce9c63fd01a10efU, 0xdc033e05c641d3c2U,
  0x4d7d5e5f7573fcdU, 0x4b32cc1fed36d5f7U, 0x1215291c134ab9c6U, 0x4159cfb3bfe1816U,
  0x2a2deaf535c5270fU, 0x7f365918eefef02cU, 0xc3d13dc08f732b4U, 0xbfcb1e43431e21f4U,
  0xf110c4e1013441fbU, 0xca41731b70762feU, 0xf4ccae31f82c43ddU, 0xa93e3a1019240bebU,
  0xdb17d42bd8e20f21U, 0xcb3d0cfdd761f69eU, 0xe2d9061b2cede612U, 0x31ff4ee33afdfb1dU,
  0x7fb307c9d83752cfU, 0xc13bef955200ad8U, 0x1612cfe6dfc4b30dU, 0xfaf63209fc16fce8U,
  0x2028e814bb015cdcU, 0xd02e5ccbf070f51U, 0xf2cf681a28dae6b5U, 0x180f4dfae61badc9U,
  0xf34712ca2d29b84bU, 0xd30dc11eb843fbccU, 0x2816a6003c151709U, 0xae5c644f42df6a3U,
  0x7f6001dc426d102U, 0xc308285f35bd35daU, 0xe6f0dbfad6d434f3U, 0x3bab2b4b6a01370bU,
  0xce61e47fec6334dU, 0xe9e211e543b83511U, 0x10102307102ad3e5U, 0xb5bf091518d00330U,
  0xe3f275e28d11aa2U, 0xac1a68d01fa271fU, 0xe10b5fe8f334f22bU, 0xe4f7eee927f91bc0U,
  0xdd5ce51607d612c9U, 0xcc4667190206b416U, 0x27dac8e6a5bc7dc5U, 0x321c15ecff570f8fU,
  0x35e24919042ec930U, 0x41e12dc225e9c4f5U, 0x1204f6f286244681U, 0xfab8191d08af190bU,
  0xeae8bc45ebea3a5aU, 0x19f2c9d00d38da34U, 0xe82e32f9f318e2feU, 0xd681d90fc033da14U,
  0xf2ff484826d7f3bfU, 0x370bf90a56d10d4dU, 0x4a7af8370f26d7ceU, 0xffba3056200d2518U,
  0xf8fa17ff193c1fdbU, 0x5f31e44619be09b3U, 0xbdd5cfeff4e7010aU, 0xfd451c28f247e502U,
  0x27fb4724052b05b4U, 0xef240a1c2a35fbfcU, 0x6041d007cbe4ebbcU, 0x263d1dcd2ae9050eU,
  0x3ee409e41ad5ca5dU, 0x3af0f9e0e7312713U, 0x46ffe2f80daaa4c5U, 0xe1e7bad6e44fac1aU,
  0xe60de7142bc34947U, 0xf3c9c203e50b8db0U, 0xe7fbeec6c615ae7fU, 0xcbc254f8d9f83c1fU,
  0xec1044c0f0f1eef2U, 0x3a071511e300db2dU, 0x13bd2be0c50b07bbU, 0xffc9effe132324c5U,
  0x6ed34f2ede91c02U, 0xff08cbd6e5faa5e3U, 0x170909b5ff2bfe6cU, 0x6cdbd3553f33830U,
  0x4ad105ec2d25b0e7U, 0xfddf853ce4d32d1bU, 0x38423f2c2b6212f9U, 0xc816c7dce814d2fcU,
  0xef1c53021608ebb4U, 0x7f3dec8f7274a70U, 0x192b1af70afb12bbU, 0xa31fc209e800812aU,
  0xc5a9359fc0f054c7U, 0x14913808de3e084bU, 0x61c1f3b2714c41eU, 0xfeb4633e3ce3fdc3U,
  0x4cd849680c193201U, 0x1f2455bd35311a1eU, 0x1504df41b8f04a34U, 0xa9d8291bc9ceca2eU,
  0xc8d913431d04fbcdU, 0xfb4d0223cfc6c3c4U, 0x9e2414ccb00ffc4U, 0xdf0d260332c01accU,
  0xda0e1f1f25bd3c27U, 0x1517ff2de1f2ace4U, 0xf3ebe8b20f2e15ebU, 0xa4f1e6f4fa2a31e0U,
  0x8103d513ce4f1c1fU, 0xec051614e35417dfU, 0xf4c1b7e0f3d1464aU, 0x1bf938ff2334ebfaU,
  0x50e1f023e7c430fdU, 0x1cb2032d210cdc01U, 0x2dfcd8e52856fe08U, 0x69ca4608e23cf6ecU,
  0xd602fd29634e2029U, 0x1db0a032f2e418e1U, 0xbc473767291dc83bU, 0x4410aee91b2b41e7U,
  0x2baa250681c207f4U, 0x9f2b2caaebfd401cU, 0x85c368fc0936f490U, 0xe82a9fd63001fd13U,
  0xc8d60bdae95bc720U, 0x24fef913df1027edU, 0xbe1ba1d67907f63fU, 0xd4d0b000c314aa0dU,
  0x8f01ff04c70b460cU, 0xe8e2d2faf9573c4eU, 0x2012d63f47641bc2U, 0xe3e20d7c642a78d1U,
  0xf4d29fac717ef2aU, 0x9315118e7b5039bU, 0x1ff2ff0ef21d2d1cU, 0x1ddfda12cec433c9U,
  0xa1f6e1ddb803e1d2U, 0x24413342c9064c1U, 0xd7d56b35a6d233d1U, 0xc9015d5b6443dcb9U,
  0x430b06c135cf29efU, 0x8fbc47f91342b681U, 0xf64182a971b9de0eU, 0x2b79e8330dd224daU,
  0x8205cf9d8850e4bU, 0x4128360db0c6ed5cU, 0x4f39989cd58c4d0U, 0xd11481cf1a00efd8U,
  0x31cdefe142a1416U, 0xf12710ffccf8f1d8U, 0xb4d9e2daf7d702beU, 0x272afecec4dafb56U,
  0xd20a1f0fe7fa2525U, 0xe8f41ccff9fe25deU, 0x3c37de2fe41b1b31U, 0x180454123746c6dcU,
  0x102228db0d115f05U, 0xe30614e2e7e10596U, 0xed4e0d8b7e6f0caU, 0x273d0d02f1fb16e6U,
  0x5709c72cce16d3e8U, 0xcc210e5418c0f04cU, 0x1c2811042519dcefU, 0x4a4b7b353bd25cfaU,
  0xdeb6bbe1d6dd3c3bU, 0x7fd719fbe31d0bf6U, 0x56e0413f0ee8dbd8U, 0x26f0041f2d2d0bfbU,
  0x5717e919643073f4U, 0x304a4d4a794ab347U, 0xb6f61c15fb1bf6ceU, 0x1b033becfdb429b1U,
  0x13e6faf6cec71608U, 0x2b41e51b2116e938U, 0xd044e84be42623e3U, 0x4adfc6baadf6c9ffU,
  0xa6283539b9161e6dU, 0x9fe6fb0b89b910e0U, 0xf00d197f3e71dddbU, 0xb558e181debed188U,
  0xb012adf18e2de906U, 0x6331c07e9ec005bU, 0xdd1e7aea3722012aU, 0xf5ead4d1b7083600U,
  0x420c4948e9cd5c08U, 0xfbcd3d042b000226U, 0x1c2dd7fad117f81dU, 0xa1f23fd48fe17dcU,
  0x5efc5f6c01737b1U, 0x2cc8b6215af7fcf0U, 0xf13724cf150fe7e3U, 0xa33decabed32c0bU,
  0x54f0b517f5ec1afcU, 0xd62f3fb5e124c340U, 0xf8fe132fbd24dd00U, 0xb828dfeec4ae48e0U,
  0xe741c9ecdbcbfab2U, 0x2d22f9dcf193bae6U, 0x2dedf8662dc3f6efU, 0xfdede2291b582cefU,
  0xea5459dc249b73e4U, 0xc1af85cece38112U, 0xd6c72e480d0f0ef0U, 0xdedbc71c20f7f801U,
  0xb8fb0dc6eb1ca7d2U, 0xfce5e9dfd702e6dfU, 0xf258e92b20f10bf8U, 0x2ec41fc02f9073bU,
  0x1d2521d709f527deU, 0x3f15d2211f279d25U, 0xf91bd3d405d6f1e9U, 0x263eda4b04f9d638U,
  0xe1fd04c8d0cb1625U, 0xf72723ff7f32d2d4U, 0xfc3fff44f1f4a9cbU, 0x6e8c052ef051d0eU,
  0x151425cc31fadaU, 0xcee5f5d12aef1233U, 0x43224152d427cee6U, 0xe51bece90f0935bdU,
  0xf509dfef0b40d2b9U, 0x1e57e6d2f3f5c116U, 0xe232eee3ea122aacU, 0x4e1e041cfce5ea24U,
  0x3be23f0e2a203eebU, 0x1edff128389fd9e0U, 0x20eaba33d4d6eed1U, 0xf9aee44f72e23f9U,
  0x91ba18e4b3b5fcf1U, 0x23cd0c30f3b30da6U, 0x2be72207fd1dad9aU, 0xc90e7d0ba93756ffU,
  0x5f37fcf7192fe3deU, 0x1ccfe0884da46c1eU, 0xc608568a35e91e3eU, 0xe1292481f752f3acU,
  0xf4f8033ebb5f12b8U, 0xfcc6ffb4fafa313bU, 0xd6911ed5e748efedU, 0x10ce3a083bc6d043U,
  0x1b522d2115182201U, 0x73896bd0102fad1U, 0x38d7e31fc61dde25U, 0x3e513509cf0efef9U,
  0xcdcb2acbec8eeb71U, 0xf021ebda7f06f8dcU, 0x1d74fbd79cb3f897U, 0xdeed1e023f3f5ecU,
  0x3a5a0ffb14e5efdbU, 0x24d3029f4918eb0dU, 0x4128fbfbef34e947U, 0xa3f200e900f265bcU,
  0x37d329c30413dcb2U, 0x635270b5ac6ace4U, 0xda130350b1ee5b86U, 0x1521dabd1b0232e2U,
  0xac04b4aea4ff5c8U, 0xc31511b83feee924U, 0x15e11b350406fb40U, 0x1a7fd04afbf74dcfU,
  0xa23f1c5284812c6U, 0x77e2bdc9bbf3113eU, 0xc3345ac7e8d9ffa0U, 0xf8ea335e2b49556bU,
  0xbfd13bd1709f60bU, 0x1c283fd914d93a05U, 0xff2217d5da11341eU, 0x18d83c5bd629f036U,
  0xdbcff2f2481401cbU, 0x6bfdc92ea9ddfa23U, 0xed02f5c828f7bfddU, 0xadbe1ccdbbb9caf1U,
  0x1120efea3205cc18U, 0x32f62bd1a1374236U, 0x2c5c221918ef2ef1U, 0xcde200b1ffe0a4d3U,
  0xe1b4e359fdd1f4fU, 0xb14afa122905e226U, 0x1bc80c0304e928b0U, 0xe94be5f3e9fe071dU,
  0x82e0b84603ff772bU, 0xb18581fbeffac0e2U, 0x3627c1feca4df5faU, 0x12ad29f2816072dU,
  0x190cc00d2f392dfaU, 0x9edccda12e5a3cfU, 0x10fdc8faf5ec03f6U, 0x29143b5ff6500419U,
  0x2dd90333cd18ef03U, 0xd0b707fa2b0b01daU, 0xe63addd6d122cdbaU, 0xd4c410a8ff1dee1aU,
  0xaf3391813f6d101U, 0xffe746052bc3dfe7U, 0x1dd3ec3a1f150a12U, 0x81e8d8dee20bed1fU,
  0xc20bf702103b0220U, 0xc3fbbdf71cf4c5eeU, 0xf2e7e435161e0101U, 0x30ffe9c343edfc0dU,
  0xe71b0f00f811f603U, 0xed2526143021f0dbU, 0x2b2c1cce2dcd1fbeU, 0x170f0d0be80ee7fbU,
  0xeed90dd6061eea18U, 0x1f272f5420070df6U, 0xf009094e182513d4U, 0x6304476b00fc27f5U,
  0x8108169e41f7a722U, 0x11acd300cb461d25U, 0xb44f35fb56011c07U, 0x15e024f320eb5041U,
  0x677cf028301e0c1aU, 0xfc474ada280b0517U, 0xdb4e04e2dc0d00fbU, 0x462822109707eac9U,
  0x20bdef2e26af2c3cU, 0x1bbfc2d2c59de439U, 0xb11a63733323c2faU, 0xf4b125158a81e153U,
  0xdb43e6102a0be931U, 0xeef8d6c926ef370cU, 0xd1cbe52fefe7501fU, 0x8bbdd69a09d5afeeU,
  0xfff41b5693f9d8c6U, 0xff1cfef0f8b1e6b1U, 0xc0fcc74a14e2f704U, 0x8cfec614d9b5e4dfU,
  0x990df320010422f5U, 0xaad2810d01ee9511U, 0x3eb8fc2b3707b013U, 0xa10cc5a52d2a29ccU,
  0xfa45e7d1db2cd3e2U, 0xa23c63cf1b14e7d6U, 0xe40ee328f102e11bU, 0x2b0f17260828c605U,
  0xeedf25c6239e2c03U, 0xf6100c46eb23c747U, 0x151c1ad22300f9c6U, 0x70041be5af1c9cdU,
  0x3d041121a7f11034U, 0x2416f3e73e58f5f3U, 0x143cc40a0ef1dd13U, 0xe735b02ba0ca03f8U,
  0xfb2ae40bdb11e7c3U, 0x9fb8f9bc52fee9d1U, 0x1f1c46670b3d084fU, 0xc234271aab7e1febU,
  0xef4a20b996e8291fU, 0x2fe13724cdd4deU, 0x16f01714ae19f1efU, 0x30f17247e36b9c12U,
  0x1081efb9eb290a09U, 0x2007f245340b2fc9U, 0x4ff5da4d8fc13743U, 0xbbe70340e0b71effU,
  0x827bd74f27f80a1cU, 0xdf0a30ae58dd0272U, 0xbb4b0713201e2836U, 0x84b19381f7c691e4U,
  0xb1c846e0ccdd8487U, 0x17dc084cb0f22d6aU, 0x466d33687a1691a0U, 0xc25de186232e08d6U,
  0x8910093662f95266U, 0x6bd0ec2ac5b042edU, 0xf01ba9ea4a882aeU, 0xce3600dfcceb4d02U,
  0x4d59faf60b25f9ccU, 0x14163542003b473dU, 0x19570b16edbd2d04U, 0xeff9f0f0eaf71127U,
  0x20c0f30cd63c071dU, 0xd44e0f90e33b94bU, 0xf20ff3e804dce939U, 0x818eecfff7b8db42U,
  0xef0184d09c723ebU, 0xdc0725cafed3170fU, 0x2652ff29fb07de27U, 0x42c82a76046495fcU,
  0x14eae1e1f90f17e5U, 0xef21e43a12a510ecU, 0xe0e8f316e4b4d9cbU, 0xed5c4e1fe90a18f7U,
  0xf7d633061afd18deU, 0x161541f6fe1b20ebU, 0x251ed6f128facef8U, 0xf6411902d00116efU,
  0xd33601e61d100b14U, 0x8c1ddd5e4261b1aU, 0xf4f624e038d5bfbdU, 0x1e0122faff13377fU,
  0xf50f2cef23fef6f9U, 0xf32a3007f0e43dfcU, 0x160dc9f0d7e6fd26U, 0x3bf8173bd51cf3caU,
  0xe0d0ced909f2e2c3U, 0x2840db2ef02639fdU, 0xef65e9222bd0f2dbU, 0xe6f323d1b3ede917U,
  0x170ad50a06e225f4U, 0x461603a8d154e237U, 0xfe0f261a08ad2319U, 0xd4b52eac3eb5f829U,
  0x3c1111d2f5da3112U, 0xcb33f9213c09ffdbU, 0x7c0b0cb3f715071eU, 0x1ee6ef0d1b2806f4U,
  0xdd8f750f3ea513fU, 0x10aa63b664d0c55fU, 0x32a1450be92e852U, 0x9801e97ffa4ddd08U,
  0x1a63f3ccb6dc0818U, 0xddf31cfdc6e8e9fcU, 0xfdd39a170ae0a11dU, 0xd90739f5c9e1001cU,
  0xe2e762d132a35802U, 0xbe41ffbbfff122b5U, 0x3706f7301afd56e3U, 0xd7db20fdd2300a4aU,
  0x5bdfbafa0c5972a8U, 0xc114ca5bd8104efaU, 0xd2f8f44f31e55012U, 0xe3b7eb0795ef2930U,
  0x5051dca71612e6d7U, 0xd181f92eab1a1227U, 0x1005a6c0cbee4988U, 0xf7931dbabe3dc36U,
  0xf4d12bf1c6fa15c6U, 0x970b39eefe1b121cU, 0x160c2b3507261434U, 0xbd73cdb0e10efd2bU,
  0x85c2edba39d4bca2U, 0xc37f3d66ee2d890U, 0xc9f0dcc646253e19U, 0x4e6f118d9f6fb2fU,
  0x1805e2262717f9c4U, 0x2af0bfc2995429f0U, 0x304cb156c5f02b6U, 0xf7cf4e0104eec2c3U,
  0x13b610ef1ba0b9cdU, 0xe2f6780a0fdde624U, 0xf036a23249bc20c6U, 0xf0f6ccf0c4502f00U,
  0xfbb513011d5e30e5U, 0x8f21c28cec230adU, 0xc4fe0b45f60151e8U, 0x810fdc32d352b6dcU,
  0xc80a032ceadce22fU, 0xf2bf712d09d4fd17U, 0xb42d69c1eb0f3a18U, 0xe13e09d7c33cd1d4U,
  0x4f0ddf0e392e301dU, 0x254b0ef4ce55eb15U, 0xf2004b505217f81eU, 0xf00483cb34f650c9U,
  0x52d91011fecebedU, 0x373729eef17d01e6U, 0xfd0ff5e8f301ffbeU, 0x21a51c50ee371a5eU,
  0x14fa09bf26edf609U, 0xfac9064c2ce7337fU, 0xe9f8a40319f1e1ceU, 0x9d3005e5ab1bf47cU,
  0xb407c1bd3dfc38efU, 0x1e2338eefbdbe0deU, 0xe61318290efd160fU, 0xc212f0816401203U,
  0x3ce82be813de4defU, 0xe6edbf1d1bfdfea5U, 0xc9e10d97fa0333ecU, 0xd310280c34c64ef7U,
  0x1f02d6dc37262022U, 0x2208d8d54db31901U, 0xdd415429f1cde721U, 0x7fe3fdf3e3eac8dfU,
  0xfb2e16d7d3f70f00U, 0xda06f4d8fc17abcdU, 0xdaece6e8d215ff43U, 0xf81fed2afee4d8edU,
  0xd0d1ff590515f0ebU, 0xe121e9ea22c11c1fU, 0x26c1ebe9f22a14d3U, 0x34d1ca38020ab629U,
  0xd1e615e814f506f0U, 0xede046ec81f626e4U, 0x924100216ec2214U, 0x2a204604ea16fafcU,
  0xf5c35fd39ebe7cfU, 0xff3f17ecfffeb8bcU, 0x2bc9d4de2c23c924U, 0xf7f222f4be0efc15U,
  0xcf05090bddf203bfU, 0xf6c1f5dbecf82bf6U, 0xcc0b2919f50f120dU, 0xbae10fd6fd1d24ecU,
  0xef27fcd1271edf2eU, 0x442800be0fdef4c7U, 0xe9c0e90ae1d229e3U, 0x811fee1d90936e1U,
  0xec39ea4d7feecdd3U, 0x1c0203c7fc27ff28U, 0x13e7d2ffe3104d37U, 0xff2406a1d6d4c2e9U,
  0xc8eaded0f700f709U, 0xe6e9202cc411f0e6U, 0xa04f3cb1ef05bfcU, 0xb4fcf34a6a07fc4eU,
  0x4efdffe6f40b26f7U, 0xfdd0f823eefd16b8U, 0xdceebdf636e3d616U, 0xddfbdd29f002d003U,
  0xee4fd1abfddcd13cU, 0xde31141e9424b2cU, 0xe7326d1b2a0e19e9U, 0x23a7f20bcff5c2fdU,
  0xaba5e5f201811911U, 0x1bcc34e705b12eaeU, 0x2bd4fbf5e7d34c0aU, 0xecbcd1edbaead5f3U,
  0x53910056eb9af2eU, 0x1aa0c1171af41eaeU, 0xbb5822ab0d02ffdbU, 0x19bf150df6ecfdccU,
  0x369f00f1281b0cc1U, 0xd4e00094e01b07e0U, 0xdac16322d9432d44U, 0xf3d0f134cec33b3aU,
  0xd44fbaec0a301401U, 0xfdde9d80cefefccU, 0xd6e3fef9db062301U, 0xf32e3ce53cb2cdb3U,
  0xe3ee4b07cabc9d0eU, 0xe0112abc130b382aU, 0xb9f1f57421a1e6e4U, 0xfec937e65b4b1415U,
  0x32f9e8f45bec67d4U, 0xd7682110450f0107U, 0xee7e176dfd5d042U, 0x20f07f0fe8f312a5U,
  0xa4fc11c40add5U, 0x2950bfe1dd370bd2U, 0xf814694aed03b91bU, 0xf21ce406ee0fe80bU,
  0xf30f01cf12dd38d2U, 0x23423ad3c4c7b943U, 0xc3583ef01ff841daU, 0xea47350ae98c0201U,
  0x6410cecf3fd12f7U, 0x4414d5d1160811e3U, 0xc60a23f30def81fbU, 0x191a01eb2df711efU,
  0xeef2cca1d9045d21U, 0x14d950effd04b7f1U, 0xefdef90111192308U, 0xef3540f310b4f503U,
  0x1c07c5ec241915e1U, 0x15f7f831dc76c730U, 0x260701fa5020bc22U, 0x38e3093cfb06e3e5U,
  0xebe5b621e3a6eb1aU, 0xe6be04f4e001fb3cU, 0xe50e5dbc3b2fd2ddU, 0xe3f3f385aa1a01fdU,
  0xd412b9f517d7efa5U, 0xe7fb41ff1c4806f7U, 0x23ba080cecc3f60bU, 0x55db0fc8f0dc5819U,
  0xf1accefbf2e0660U, 0xc6e8069dce42beceU, 0xe6b447a90713284fU, 0xb5d852d7130b4865U,
  0xca1fff1b0209f4fdU, 0x32f3193a3081cd10U, 0xa3bb17f9fb264b8aU, 0x1213c6d7f3ecb25fU,
  0xf4e4f3bd00f5ee5eU, 0xdc57b13f22f33037U, 0xf92270080fe349ddU, 0xbb32c90bc25dfd0cU,
  0x247fca4207d8f204U, 0xd2eeae4e603b9f2U, 0x3b1646f33dc107fdU, 0xeae0f3e3f9fce433U,
  0xe74bd90507550f38U, 0xf4f3bd07262015ceU, 0x49e7e939c8e00155U, 0xb9ec3d43255ade48U,
  0x27d628b03d35041aU, 0xbdf174908f31406U, 0xe71900f2cfc0e2daU, 0x52cf328f7dfabf1U,
  0x25e6040cf3ba1f18U, 0x27335128e9074b27U, 0x351625d0fe2ba6d0U, 0x5a68024b52f752afU,
  0xcd20b7eb303a0e12U, 0x15d2cf2b22214824U, 0xc27f6fe529cb1115U, 0xee217486cdc4819U,
  0x536433d1f32c9e06U, 0x103b5beef3c54b53U, 0x26e24f4ae72e13f6U, 0xf308fe40fa3ab409U,
  0x1be3c4e542ebd1ddU, 0x3223b00bb2a60e1fU, 0x96fd61085d11ec0cU, 0x18e7a8c6ade60df9U,
  0xa6580fd92e35fae0U, 0x2036ec9d0bd72115U, 0xff246dfadc5611U, 0x523d2e6a26d8eb41U,
  0x39cfdccdec11aafcU, 0x47c4ea095aec56c0U, 0x36f503250bb3c2f5U, 0x53e4d208fbd92c15U,
  0x22e205bddffdf5f9U, 0xfc8d4aafae6fcedU, 0x91f644f71e22fa9eU, 0xd10adae6b11008feU,
  0x180aca1bf6fdb3f6U, 0xe9230b18cde7812bU, 0xb30b0dd04fa5223aU, 0x45dbf8daeb0be4e8U,
  0x42eaeb1c5be2400U, 0x6053e212e91a57feU, 0xd3e3dc26462b65efU, 0xe1a50dda28a3bbf5U,
  0xe5fd23eb07b6f1f1U, 0xcdda69c9fc0b0501U, 0x7db6fd5342950fe1U, 0xf0841c041fddf841U,
  0x9a5260bcfc2bfceaU, 0xaa41fa2c17432ae0U, 0xb2da222081031c2eU, 0xf543252425051c9eU,
  0xd0463bbfe262c009U, 0xd459db2eee4f01beU, 0xe80637ebd3c211b7U, 0x1724efe9f1dbdc11U,
  0xd0c0ee6fe85e5e3U, 0x13752550f3ea04cU, 0xf8293df558e834b3U, 0xe9630128d1f5fb00U,
  0x1104fd1fccf6121bU, 0xe4fdf00a2dfefae8U, 0xef320f1d02c1d11bU, 0xfde513e824ee2f03U,
  0xfaf6d0423bfe150cU, 0xf2bd08ec0aea1a1cU, 0x1926254bbbd22004U, 0x20ec344a040ff2f7U,
  0x23ff17be1dede50eU, 0xaf2d4433ef9f9fbU, 0xd10afbdbdafc1b81U, 0x5a16ec1cd5f7f530U,
  0x22c8300afe1331d3U, 0x1a014310d603191eU, 0x450dc902fe2bc809U, 0x1e740160f629640cU,
  0xe7289db41e4f060dU, 0x2ab681f8aa1b0650U, 0xdf29583101c021d5U, 0x2a230b3434256934U,
  0x345f5e0013f1a4deU, 0xe50c3b08d00c5c49U, 0xff290ee53018fd0bU, 0x20f8f807dc28b11eU,
  0x2ac4bdb92019e3d7U, 0x27c19d4caec00df8U, 0xcf195af12734ade1U, 0xf8d5fb9ef4a3e5e6U,
  0xe072c7097842f56bU, 0x3f0eccb8d90c77edU, 0xc2dae47a3219014aU, 0x4137f5007f443598U,
  0x17c6ff10ca56f83fU, 0x17dff5f447375d28U, 0xfb472bff3dce1a47U, 0xc5ba111439261a2cU,
  0x3a000f00c5eff90cU, 0xdbf938b126e64a59U, 0x8e0fe63e9efb843U, 0xf00751501bf3de0aU,
  0x21dfff0a3913e9fbU, 0x3047e631eac01346U, 0xe9d648fef0f8b7e6U, 0xd102d81929e20c1dU,
  0x271bef04173414efU, 0x2c5901d805f0181cU, 0xfd3f3b35fefa59faU, 0x6823370ed0b9af0eU,
  0x18f20afc37b510f8U, 0xffb4f2e614e93581U, 0xec142917b8c4c7dbU, 0x31feaf303e2ccc9U,
  0x541cecd2f41a56edU, 0xfe2a01b4e725c9e2U, 0xaad80e9b19e388c8U, 0xf706feba439e3a0aU,
  0xeafae2edc33df0f9U, 0xc121fe1bcaabccd3U, 0xf65426db14102e0eU, 0x46ad300525eff309U,
  0xdf2132330b2e0b18U, 0xe1f1c1ce1adcf1f9U, 0xf20ceb3731ce32b7U, 0x2a2eb712c20cba17U,
  0xf4712e056448d6d4U, 0x1f5c6bc61024b4d8U, 0x422a0454eecc1af7U, 0x22fff6247f2ce2e2U,
  0x1cf74df92c9ecee3U, 0xd8ca08f9c03b4311U, 0xe605b4a516c1bdeeU, 0xdf2e4702c3470059U,
  0xffbdd4cc172168c1U, 0x36e00a6c35ce65eaU, 0xc660c1e35f03199fU, 0xd6f1cb99bef4a523U,
  0x3df225b2ecfc4216U, 0x20d75ab7d7373eeaU, 0xcc3767e15edc053dU, 0x73ff163f122b04d4U,
  0x2bf53c2c21f22b29U, 0x39901d29dab713efU, 0x1050c4f9003423b1U, 0xf0e2d359b2efe318U,
  0x562ad06bfbbb52b2U, 0xd0fc95571545e9U, 0xd7e83e9507c3b4f1U, 0xf431d8acf8075ae5U,
  0xff040e3d72403ccU, 0xb1f90afe0fc8e6c8U, 0xbf00cb55b41c23eeU, 0x4e141320164b14e1U,
  0x3c813a6ff30ff8c4U, 0x2e2bdcc84005ebc4U, 0x68f3dd6ef2fb39d8U, 0x1ac727d6125d3e92U,
  0x635e62a173e1768U, 0x1019303dbd48ea34U, 0x7f38e1c454e86803U, 0xc53291fac4cbd0f2U,
  0xdad99ffcc7031ec1U, 0xd8ea0127dbc112d8U, 0x67d5fe25e1fcbfc0U, 0xd40002da14f9b5c9U,
  0x5bc26d3f521ec20U, 0x25ca33c5af373c93U, 0xdef9d1ef3bc3005dU, 0x41bccffad1296c5U,
  0x4a0f5c080c46eac5U, 0x3313fd314992c412U, 0xfdc1e55f773e9da8U, 0x25f6fc0d0e13ebb9U,
  0xda49beae4827ddfeU, 0x6d2a33321349a7e4U, 0x11d7dc4635e7302aU, 0xfc50ea1d7f3f998U,
  0x9882afe82b200fedU, 0xdeaaf1f803f0bbe8U, 0xd120b24d1cf903f0U, 0xe81cfc4afc6ee03aU,
  0xb61ac81dd3e0ad15U, 0x16fb11fd194b1f1eU, 0xc4f6d7862156d4edU, 0x95cbf25abeed814aU,
  0xa72babc3cbe3f720U, 0x1140230eb8153bdaU, 0xb0404503200ded56U, 0x1a06112f0fe00643U,
  0xbfe604f50cf72335U, 0xe9053f3e7fc337f7U, 0x1d06280618c3d1e1U, 0xfbc1514cefda4824U,
  0xb03384be8ecf9d4U, 0x14b6ea941dd5240bU, 0x32264e19c60dd02aU, 0xe8154727e62bdeceU,
  0xe40f26d20afed4f2U, 0xe230dc30f904b5eeU, 0xc80dedefc1dc1dc7U, 0x204efede2cf24cbU,
  0x32d76cf6f3f43701U, 0x385834f9d2f611d6U, 0xfcd9c0e8e83bdcc9U, 0xb831994ecb09d802U,
  0xfe28eac52cd8feddU, 0xd13d5c15141ba96dU, 0xdbdb61e1cbfbbff0U, 0x792a021734e20508U,
  0x11fd1c4c72e01eb1U, 0xd6c827bfc6aaa028U, 0x7f0accd9481008e7U, 0xf72830e6c2d50a21U,
  0xd178cb1c08c2e6e0U, 0xd4faa1ed01b2172dU, 0xf63ff2c4254498c4U, 0xece34de12f2261e9U,
  0x4442e740a6e3df2bU, 0x40261fb7e02da2f0U, 0xbcbebad0e0b00828U, 0xed0c01c738e51bbdU,
  0x532203ddc1f50df1U, 0x1319cc0f382bdf44U, 0x121dd42410f43229U, 0xdad2be10fe4cee39U,
  0x121cdf04debe7fceU, 0xe92dccff0f1718e5U, 0xc001447ba1ed65aU, 0xe73d41eb00f9c6dbU,
  0x191d1fc82837d119U, 0xd53cf8f4e6ecd803U, 0x26bde7d3d212fbb1U, 0xf30e02f131d1ab9U,
  0x2ad0c709da4913c1U, 0xe547281e10da0e4bU, 0x38fff0301bdc0ce9U, 0x316dce02b3aebd7U,
  0x5abee10fdf12f0ebU, 0xca30ee39fe002662U, 0x1fbf2fb9e712afaeU, 0xb36353e8f2c22fbU,
  0xf814d80e1cf0f2b8U, 0xf00ff3d2eedfefb4U, 0xfd083ab0d246feecU, 0xf026cf1207b3f841U,
  0x260d1338ef34ded6U, 0x3ac8cc1dea14db0bU, 0x51b4b3344d13e1fdU, 0xcf453ce31440bcf4U,
  0x1f093efa084f11eaU, 0xc92b3959560a6a50U, 0x3b282038d2087fe3U, 0xa0ef6fbd407b11aU,
  0x9c1fe10b34000eccU, 0x5c11ba00b8e401c5U, 0xe70a32dbd2dad1cfU, 0x1703272f08311c0dU,
  0xf37266e02f4ea118U, 0xdfc2342212feeecdU, 0xf8e8d7bd37ed14deU, 0xfa37e31426432d24U,
  0xca0abbd900d83689U, 0xeef146f3dd211a2dU, 0x9333dd6508b01239U, 0xacc8668313f5c33fU,
  0xcf50dbf77ff20e09U, 0x73efff2bf12301c8U, 0xf8dbf1db5fdbdc3dU, 0xd733e7c62ee40ddbU,
  0x51e34d207d73926U, 0xf13f1503f33e53c3U, 0xba3c0a3bfed4130eU, 0x16761c1c04eaad27U,
  0xe22e2e12b66a424eU, 0xe72dcaead5e9e8ebU, 0xd38119b638d3e8c9U, 0x9e7a08dc231264d8U,
  0x95ce4e41b19cdbdU, 0xd91cf8eade25f942U, 0xd6f21c1e580417c7U, 0xc7f8187dd5d1e708U,
  0xcd2e55e4b755ff24U, 0xebf5d2f7135fefc8U, 0xb40a610942a1b425U, 0x3c0405152bfc51ecU,
  0xefbf04e1f729f768U, 0x1caac8e20e3a1405U, 0xed4bf5f52ead280fU, 0x29cb2e0ef8571854U,
  0x34540eded602f7e0U, 0xef275cf5f8d46ff8U, 0xdc2cf018eae2f528U, 0x4bf944300a0be411U,
  0x32c2f8ee1be5d0c1U, 0x3941e104c1d73548U, 0xe81d30554ff5d003U, 0xd7d5e8ccc781d93dU,
  0xdf07e8164b071409U, 0x483befc7ec01490fU, 0xc5e8ec6c18fe1d12U, 0xfd25cd1d4914d43fU,
  0x2e23eebd12d4fdfeU, 0xe9224b360ef31dU, 0x1dc7ced88e11fd34U, 0x359ed03e9eff1d40U,
  0x29f1fcf73bfa47afU, 0x4c1f13240cabb31aU, 0x9eaf30f6d2cdf600U, 0x4555372218f17f0aU,
  0xd718cb0eb321c5d5U, 0xcf24fbd33602e0e4U, 0x5fa9e411141e20efU, 0xd5ccc2df350808daU,
  0x97bde9690619bf6bU, 0x52cb4050ae2d501U, 0x13150152ea0f221fU, 0x3bef811ef09dd10U,
  0x18fd25f226c9bddbU, 0xf0202438ff9bc1eeU, 0x68c72d3e0c15d40dU, 0x180a4c2bc1ba55baU,
  0xea23350ce9c1af5aU, 0xaec0ca48e51206bfU, 0x2b34f3993e057fbcU, 0xeaf4c69c4a0400e9U,
  0x8aea0a390dbaeef2U, 0xa2529dcfa530051U, 0xf71d2d2bf8f7533eU, 0xfbe6f3e2441f0f14U,
  0x12d837bc5fdaca2fU, 0x200af34deffe3febU, 0xfbb0fc011c4b0bfaU, 0xf9db006cde221d5dU,
  0xb629dfef4c92af09U, 0x31d1e3de22b0be5dU, 0xceecbdb466d3e01fU, 0x25df260d5a0d390fU,
  0x23ede3e548e79833U, 0xe921e3ebc329bae1U, 0x232bc6160bd90c12U, 0x360c460c0d271df8U,
  0xf8ab19f1f8813cdbU, 0x4c4c18b28e0203efU, 0xc8ee750213bfdc0fU, 0xdcadec07c20cfe09U,
  0xec74379b0b30f548U, 0x65a8b9274ecf5b1eU, 0xa905f7fcc72762efU, 0x6112c7f412011be2U,
  0x78e45a2335e4ba0cU, 0x2f05e01f02435540U, 0x2523b03b2ae6c1faU, 0xdff50cf330ab05U,
  0x16f00325f80248eaU, 0xee3a0112e921ff0aU, 0x1dcf2fb01a2530efU, 0xe8efafeae84a0330U,
  0xe6d53012b8342d1aU, 0xd4e42cd40ea12ea2U, 0x34242bf6d8b0e8e6U, 0x1c1af772291fcc0bU,
  0xb7a4ea7f0651bd13U, 0xddf7cf2b552ad42dU, 0xebc8e81c237c680dU, 0x405f1cc2afaf9dfU,
  0x1ff30e04f1e7f61aU, 0xf0f12315541a0ef6U, 0xf219170e0bc83528U, 0xde5c704ec051a21U,
  0x10cf637e5f47ffbU, 0xfde2f5c83804e01bU, 0xfcc52c4f1b02eb0aU, 0xe1e0f1409e5e6edU,
  0x3a341ef4101adeeeU, 0xed34c7061ad3a8eaU, 0xfdcfbe3f901f3e0U, 0x280f060aff320ef8U,
  0xf5c812eff22834ebU, 0x26342a0cb4c90dU, 0x3efbe12601200602U, 0xba4bd69da70c0aabU,
  0xec140927da15ffceU, 0xf555ed26bf37f402U, 0x4efe4f2205e7e2f2U, 0xd9f3d3ffc3d01b46U,
  0xb8d5f1130500ebf4U, 0xa6b3d842cc380334U, 0x7f9ea02cf2f1a3bU, 0x259bc6bb0b052c2dU,
  0x4ea3e1410301200U, 0x55d2ff0a7fd9e92dU, 0x10032f36f7c1f6afU, 0x1f260fa3d90fb9faU,
  0x34cfe6b521f104f7U, 0x140c4cf2032f364eU, 0xc72d2b3ce8f6d846U, 0x1716e963db3ef557U,
  0xff340ae7f5ebdf00U, 0x71e3c824d0e8ebe5U, 0xb8f25797d016ceeaU, 0x2fc3f0af6d91d0dU,
  0xd76a6edf6904d3d3U, 0x6df11f40df628f3U, 0x90ae3d3051626e5U, 0x2fe3f8ed02703a23U,
  0x22481f7fccd2ac9U, 0x28fbfaaae019c2c2U, 0xb8121b52df043f48U, 0xf6b00bd316e7cd3eU,
  0xff0a7cc474e7ac59U, 0x1419f1fde71554d5U, 0xe6cdd9fb1818d127U, 0xfe19a811151ae6edU,
  0x44fd961df754aa31U, 0xd25517462fbf01f7U, 0x47dc081ec728b212U, 0xea508fae0f45352U,
  0x1b1bb4e1b41d38ffU, 0xe4d1ca8c2720dfd1U, 0x102cda45c3ec1c5cU, 0xeda7e0a4dad51a68U,
  0x2747bee4efe2a3ccU, 0xe1e4d258e23afde8U, 0x7f0903b36d3fcdfcU, 0x24026d52d30f8f6U,
  0x1ecebeee1bc126c0U, 0xe0022a2c0e161a3eU, 0xf10c2fd2f258b7d7U, 0x29ea132fe42ef70fU,
  0x243925f824bb13d2U, 0x9cf8d63ad98cb54bU, 0x59f30cd9e9ddf818U, 0xad55f8e8531744f1U,
  0x14e34f527b5bf3aU, 0xc6f7f747fdfe5d43U, 0x1f1edf1b0a7ff98dU, 0xdaf7ff07cd1fb8b3U,
  0xfbee21fc06a9da56U, 0x1f3a00ef44f28815U, 0xefe10e4ac1381a0bU, 0x2ce1e32604d93de4U,
  0x30fe3c2b1347e769U, 0xe0f4ecfeced24db6U, 0xfff1f2c0fa3bcdf2U, 0x1ed3df13e9b5e1d4U,
  0x2bf9fbb6de30a8faU, 0xc808c3d315012a56U, 0xdc3e201b26cf0a30U, 0xd0dc083e16146668U,
  0x3470cb2540df541dU, 0x921febea359bfdefU, 0xffc7c16bb56ee250U, 0x1c4a0b4d0ae3e01fU,
  0x20e32ceb7f1ed010U, 0x6379d635eb0bf6f8U, 0xee1f360edcecd4ebU, 0xfa2f31d20ff6d9e2U,
  0x190fd71f0efd5be8U, 0xfb463dcea1cfa93aU, 0x2d51440f0fd6480eU, 0x130d653811f2e33cU,
  0x1ed102887b75554U, 0xdbd50010491ce0c0U, 0xbb64fcf506efbbc6U, 0x2c2cfc2b19153411U,
  0x2d50176fc20030dfU, 0x29ebf1f7003727bbU, 0xcc86564417cdef38U, 0xc7fbf431333c25f3U,
  0xc9c434afdd5ee918U, 0xbf10d73344fce93aU, 0xd46881133618769fU, 0x45c3c00be7f9bbf9U,
  0xd39c3d3f050f2167U, 0x201de957dbae2bd8U, 0x4cb0071bc23dd104U, 0x4ae01630d6480a75U,
  0x30f9f90804c9b5bbU, 0xeee82bedc2c21337U, 0x2ccd0201cfdbd816U, 0x1cff122125192edfU,
  0x3cddfdea0847eeU, 0xfc22540b12defccfU, 0x816eede6e7b0c738U, 0xcd844ec0ff431efU,
  0xffeb4f29e2ebeef9U, 0x2ee33782e33502dbU, 0xd8fa0a468dd221d4U, 0xec15080fb32055dcU,
  0x2626cdfe174bf414U, 0xddfbfac60ded42cbU, 0x12f5d735175b5ef0U, 0x2913f3ee492ad495U,
  0x1409193b052b2834U, 0xe4ee1823231d4b28U, 0x3a16f93a0529b9f5U, 0xe357bef7f5e90ecbU,
  0x7bdaaf8e2ec1dc2U, 0xf3ee05e00a51de23U, 0xcbc7d0f6ebe2ff09U, 0xf51017f932fb1b2bU,
  0xebcb13eff9c9cc18U, 0x40c701c30312cc32U, 0x4104d4f5103118c3U, 0x45f6cf2719ecef21U,
  0xf7ed1e11fe5d81f2U, 0x271bd2e3461b15d5U, 0xae611e0d641fc41U, 0xf808ec2eeb11e820U,
  0xefc707061a2754d0U, 0x30d91331cd060beaU, 0xedf409d91ce339f7U, 0x1cdae8d5262424bcU,
  0xfe0206d31d00cdfdU, 0x22cdf401cf08d23fU, 0x1f330db5023e1fc5U, 0xe82ec0d606061d37U,
  0x2ffe13ff61621b2U, 0xe48146d0eeca1d0aU, 0xf2bcd818f2e10508U, 0xb8c239f607e41ff6U,
  0x431f8110e02e3c3U, 0xe2cccc23f21a08b3U, 0xdaec03000c2ae81dU, 0x2bf332ff90ef71bU,
  0xe5e610077b1d4deaU, 0x4e9a4edb2216252eU, 0xdc935e6f0c7e9f3U, 0x2b4cff05091413aaU,
  0xcfbae8bd7f2e4cd2U, 0x3e0e14eb15cdaf2eU, 0x1caefdbb1c004ff0U, 0xe7ebd2bb25013e1cU,
  0x2ff73720cd362dd7U, 0x32f82e44cf60060dU, 0xea2120c408d2f3a2U, 0xe5f5171606eeb235U,
  0x1245e1f517038f05U, 0xdcd706dcc8f0c227U, 0x5b2518f0fc2dddecU, 0xa41619d2f71ffca0U,
  0xbf9cf17e0431ffcU, 0x3af3220ed33e81cfU, 0x24f6260906d620f8U, 0x9cda194804eb110aU,
  0x2518b542eede4360U, 0xf6ec67cb5627211eU, 0xf206b37306fbfa40U, 0xeaaf1d55cb77ed0eU,
  0x4ff72cd3c8161ae0U, 0xba0fe72d0fb5450fU, 0xeac9d41c3334a890U, 0x173a28f1e8e0a7f6U,
  0x14f91ff404dee3ffU, 0x11ebf8e916b20af4U, 0x69dce738f9310538U, 0x29e8c7cf3913f340U,
  0xf2c710f5e51a3c06U, 0xdc8126ec34d9fdb2U, 0xe17d6341a6809b2U, 0x18283bdf2cd3fb1bU,
  0xe447f33ddb162800U, 0x56eb24bb01f9e3baU, 0xfee65ffa15f1d60eU, 0x2fe82b0b0d262b23U,
  0x2d63f3017b3dde4U, 0x34f5b601e436fa03U, 0x60fced1cfbe50fe5U, 0x1ef8dae53effe394U,
  0x220dea1ff93ffd09U, 0x46f6fdebe3b6ee35U, 0xf8070032ef163932U, 0x83e700d1439edaffU,
  0xa934effcddd2c70cU, 0x240e3695e7de9407U, 0xe2f02ce9ebc2f7aeU, 0xef3ae72e04f72fc8U,
  0xb11f3be176c31203U, 0xc2febd5c1737d1ceU, 0x45c1b30be111d8cfU, 0xe83ee6dcfefbe8e4U,
  0xbc15eaf32de7efebU, 0x230ad9fc40fec22cU, 0xc9f5e7e5edb21d0bU, 0x2115f5f1df22afe4U,
  0x3037c4c61b007fc6U, 0xcd4fe2fd720c906U, 0xd01508ce0edbf4e9U, 0xf7311524ab45e621U,
  0xd5fbdf17201f3be0U, 0x68fbc8ddde1410c9U, 0x2a1653b7f1cd9ebbU, 0x25ed36f7be0b2b1dU,
  0xe30d38c94717d6e8U, 0x609262ecfeef0ffU, 0xef12fcc342110b00U, 0xe3e80f04df6e3b17U,
  0xa532a832b0144f81U, 0xfbdb38fbe2174142U, 0xba19fa4e1fb636e0U, 0xcbca67d1c6a1de4fU,
  0x532190729e7bf39U, 0x482eebf5e35f2dd7U, 0xd1bde7291dee0142U, 0x957123512281f38U,
  0xe8293bc54bddaf0fU, 0x29b1e6e3dc532252U, 0xc73142b514f9b4baU, 0x3f12f1413016570U,
  0x1030fa1726e12603U, 0xbc5219f1eb1a2e3aU, 0xc850e39ded3b080cU, 0x7f42163dd60cf311U,
  0x15a5f1f61812320fU, 0x420cda38dd292e0fU, 0x776eeee3aeed8a9U, 0x9280d19acc82409U,
  0x561cf71f070fed0aU, 0x5e7f8940a2630e4U, 0xf4d4e34cf2d31e45U, 0x24f3141720ea10f7U,
  0x29c239cdf1c5a60cU, 0xdbeb43ea5033331dU, 0x2719fcd32db5431eU, 0xd29101313007eb31U,
  0x360c21bee52910fcU, 0xf33bfbc9fdfef4f0U, 0xbd1f2237f8fad14bU, 0xd1ddfc2304d6b61fU,
  0x24f41ee82e32fd0cU, 0xdb3394fb26ab0839U, 0x94e5321bfdc40017U, 0xe6fcfdd4f5110f7fU,
  0xfe39030dfdd91208U, 0xe00904f2cfff020fU, 0x95ef372603f12d2fU, 0xf5e49f16154600c3U,
  0x64bd5135fe37e8f5U, 0xdee0092cca21e00bU, 0x68da0cc0e33dfb02U, 0xd4c30dce120026f7U,
  0xc5c2fcfdc1e1fa18U, 0x24160902c2d83621U, 0x4035bdaa3fe851e1U, 0x39b115ecf3c2cc20U,
  0xefbb3708c4e342e1U, 0x29f8e14bb9ec37ebU, 0xff8f3147fd70de0U, 0x1e52efd4242db0cbU,
  0x36a2dac406b7f725U, 0xf63a3b3dd8de10f9U, 0xfce1291301ed16eaU, 0xf42f46373605ddbbU,
  0xc820020bcd421acaU, 0x2ffc0e2c7f1de205U, 0xf6f01d44f333fafbU, 0x4f0b50fc19b0b839U,
  0xd3c03cd1cff00417U, 0x23ed0c41a033dd2bU, 0x194ad45c46f6ed31U, 0xf52d67ef32c61dc8U,
  0x56341b0b492a12ceU, 0x35f6ed49c60210e8U, 0x43ecd018e2cbd8b6U, 0x22c79f322ace0de0U,
  0xe0a32e42f3f6d5eeU, 0xfcf119050bcd0223U, 0xbbca050725fd3304U, 0xe74fe4e5fb64ca11U,
  0xfe5029c726420a0eU, 0x28fc4c0ed1f12bbbU, 0x3db62343eff7b801U, 0xe625b32538ab61fdU,
  0x23ebd61238dd540cU, 0xce60e10f21fbe71dU, 0xfc10ad694c1d7f9eU, 0xa4a72b1b40750f04U,
  0xa54cc7d9b117f8ddU, 0xf7d93611ef1b2518U, 0xb40c6fd22c318f3U, 0x38f310e1fff2c539U,
  0x3bc0f6221a0e3903U, 0x1fe32417c815412dU, 0xf0d222021a21102eU, 0x88f626bad68c89ecU,
  0xef5ce947bdd0ffbcU, 0xf02af7deede4d1e7U, 0x3ae80e47e6280cd5U, 0xfafa0634ff060dafU,
  0xf533462270890d49U, 0xfad1f77bceee9c4aU, 0x6aeee301603c2d9U, 0xd80ae9ef32ccded5U,
  0x9fd7c1a0031bb89fU, 0xdacb431b1a5cd309U, 0x9f14bb3ad7ef1356U, 0x1d025ef50e3dd7c3U,
  0x393adccaf5d97fb1U, 0x25ffee61aa398c0bU, 0xc170d5a025eddbebU, 0x926d8390cf3ffc9U,
  0xcfbdc0507d8c448U, 0x24e014ed2cf3173fU, 0x864df4dc11d4ff03U, 0x26f515ff02e2280eU,
  0x3807f6c4f8f0c2faU, 0xcf23ffc2fd1006f9U, 0x37dfdc59cb01fd35U, 0x1f03301610e40dc4U,
  0x360f0fbe45212b04U, 0x1c57a2bbaefdeb22U, 0xab042614f7dfce08U, 0xd3dacc001df9047fU,
  0xfc32eecc12d321e7U, 0xf1a270be4de090cU, 0x9a1e772226d11d2bU, 0x412f216f13a04d5U,
  0x5c2e653c0427aa00U, 0xdfdfdd06e8f7e781U, 0x10f9281de21a1e35U, 0xe9600c1119d6fe1cU,
  0xfae7d2eccb19191eU, 0xfae7190bb7d0eab0U, 0x18d12cc1fe100939U, 0x201a2ec3f0fd0146U,
  0xf6ddcccb67cf0725U, 0xc7fbe646080413f3U, 0x3d1c10b845c6b6f0U, 0xf6ebca19e124f903U,
  0xfb0c71ff1a2e12bU, 0xe117e73af8223848U, 0x2bf03c3d0d55ded7U, 0x11e31395ac6c007U,
  0xcad4ee0adccdd72bU, 0xdfd6563f472301e4U, 0x11564afc039f81ebU, 0x170f411146333a13U,
  0xd1812e3e9e33708U, 0xf314b918f5362bU, 0xc3cc6e3cd3b6d8faU, 0xf308204ea3f346cbU,
  0x1c44c901b8200ed5U, 0xaceee31f071cc145U, 0xc627190bec2d3a8fU, 0x56be13dfd94b3031U,
  0x16aa112c19fc4e07U, 0x4df6ee1ca4d806f5U, 0x1ee5e7ff4039c71dU, 0x49f057a7c6ce5c32U,
  0xbbe1754d05873e0U, 0xfef0f314d001e0f9U, 0xe5d617d10aef3100U, 0xd88fbad04fd4d134U,
  0x2fff0943e4dfa409U, 0x64dd5dd9013b55U, 0xa451ddb4213510caU, 0xedf7f52dd2eed9faU,
  0x34f00320767f1535U, 0xd13d043e92b3f0b8U, 0xe35db4e426272d21U, 0x2222e80e1e186031U,
  0x20ea2a4fb305b0caU, 0xf9ef0c3cebf26530U, 0x9c23eaf420260111U, 0x26dc551b29ce0af1U,
  0xf5f61a1e0dd8fd22U, 0x208f4f314fe5eebU, 0xe0df019f5f6081aU, 0x5ad60446c1fe3703U,
  0xaf2e6fe2edb1cb0U, 0xa0bdaac2df30bf2U, 0xc5de16de06ca99f9U, 0xc73deff804214e0aU,
  0xf4dc06d0a53af317U, 0xe4ec15c9131681d8U, 0xc900fb0908180ed4U, 0x4b1a20fb1d02fbf9U,
  0x3af1f73de4cfca53U, 0x3afd3312f42122faU, 0xe5c8e532163508fdU, 0xe1a2ca823113d731U,
  0x13e02843d4edf212U, 0x2435262b0ce5f1b5U, 0xfe1e37f1d2b504f3U, 0xbffdef0de5f9a3e8U,
  0xe103e5f30af43131U, 0xbca6bb8130d8e7baU, 0x39ec12fa2b1cdfe2U, 0xd912b9bd57fc2af7U,
  0x2573a1801094cd0U, 0xa4e7fedc3c47c611U, 0xec09d5e5c12cfd07U, 0x2119eb21611dec4dU,
  0xfeee1f0102f5d9fcU, 0xfdf902ec33b5f0c0U, 0xff3cf70b0ef70705U, 0x17de9fdead4c3becU,
